{"cod": 29659, "establishment": 30439, "\u0120169": 28222, "\u0120tones": 23225, "\u0120Companion": 41452, "\u00e5\u012e": 48418, "sav": 27816, "allowed": 34742, "\u0120Stras": 23374, "\u00e3\u0125\u0143": 49323, "isable": 30061, "\u0120Ko": 8723, "\u0120Net": 5008, "\u011c": 50136, "\u0120consultations": 18183, "\u0120Arabian": 22656, "\u0120Duty": 22281, "Have": 17781, "\u0120Days": 10046, "\u0120stimulating": 32067, "\u0120Sens": 12274, "\u0120Farrell": 16451, "\u0120pitching": 9218, "\u00e0\u00a6": 35861, "\u0120router": 30577, "\u0120Squad": 19200, "\u0120nevertheless": 21507, "\u0120BE": 6362, "Website": 47464, "\u0120\"@": 43074, "<<": 48203, "istry": 20217, "505": 35255, "\u0120Canadian": 1563, "\u0120rog": 45812, "\u0120unre": 21153, "test": 21959, "\u0120Space": 5374, "assault": 31258, "\u0120Teacher": 22227, "\u00e2\u0122\u0135": 2383, "\u0120messaging": 11203, "\u00c3\u00bb": 27564, "kh": 8467, "\u0120Subway": 31891, "\u0120pp": 33906, "nature": 43102, "\u0120conglomer": 37792, "itizens": 44212, "\u00ac": 11582, "\u0120helpless": 22445, "\u0120antibiotics": 16674, "\u0120Base": 11056, "\u0120scoop": 15500, "AST": 10388, "\u0120count": 3212, "\u0120graphs": 36386, ";": 131, "\u0120commits": 30278, "Bed": 44391, ".\"[": 45333, "\u0120undisclosed": 15120, "\u0120shame": 9208, "\u0120filed": 1658, "\u0120269": 36891, "\u0120Fundamental": 37898, "\u0120sharp": 4406, "complex": 42290, "orsi": 45318, "\u0120Brandon": 5805, "arie": 17121, "\u0120students": 521, "Ford": 36982, "\u0120wastewater": 23399, "\u0120Sur": 6544, "\u0120Stellar": 34760, "\u0120i": 939, ".,": 482, "709": 38139, "collect": 32177, "international": 30877, "Hart": 39657, "male": 31336, "ara": 1742, "\u0123\u0138": 49951, "\u00c3\u0124": 2537, "early": 23099, "\u0120marijuana": 3140, "GMT": 39621, "\u0120Participation": 39332, ".(": 21154, "\u0120HERO": 42874, "\u0120spir": 23425, "\u0120stances": 37765, "\u0120BEFORE": 32882, "\u0120supported": 2800, "\u0120subjected": 13849, "anium": 42649, "\u0120justices": 15060, "\u0120Discuss": 29494, "Wood": 27850, "speak": 39397, "ikers": 24511, "\u0120Hanna": 26986, "\u0120disgust": 30883, "368": 27594, "\u0120infections": 11341, "\u0120whispers": 38383, "rique": 25821, "\u0120advocacy": 8973, "\u0120forceful": 32165, "\u0120calculations": 11840, "Israel": 20517, "rc": 22393, "\u0120Quincy": 24366, "\u0120fishing": 5651, "\u0120Canadiens": 18761, "PK": 35697, "ixty": 29262, "191": 31080, "\u0120Bos": 9792, "'\"": 24464, "\u0120Witcher": 45053, "\u0120masculinity": 33495, "\u0120Perspect": 44315, "\u0120Forbidden": 45076, "\u0120Kirk": 7686, "\u0120challenges": 2019, "\u0120clipped": 33914, "chens": 34456, "SIZE": 49340, "loss": 13242, "\u0120crystal": 16155, "\u0120stays": 10117, "\u0120224": 27546, "\u0120Divinity": 46013, "\u0120saves": 7552, "\u0120reluctance": 25321, "MY": 25518, "\u0120inspirational": 21504, "\u0120dodged": 37002, "yg": 34356, "\u0120filament": 46132, "\u0120Moff": 24730, "\u0120JUL": 32292, "\u0120hist": 33945, "\u0120torped": 46305, "\u0120complaints": 4496, "GAME": 46761, "\u0120WHY": 34912, "\u0120Seriously": 29945, "Dri": 34002, "\u0120presumed": 23924, "\u0120YORK": 4180, "Christ": 26352, "\u0120heap": 31348, "RECT": 42260, "\u0120lug": 33944, "\u0120EVER": 37518, "\u0120killings": 8798, "god": 31858, "\u0120Handbook": 44052, "\u0120shocked": 6649, "\u0120Secrets": 34702, "geant": 47726, "\u0120techniques": 7373, "pins": 33227, "\u0120Teg": 36495, "Always": 37478, "adding": 30547, "\u0120Alison": 15284, "\u0120Audi": 12719, "\u0120multif": 26323, "\u0120mathemat": 49633, "And": 2409, "\u0120Spo": 32403, "tons": 38550, "\u0120er": 3335, "bag": 14118, "\u0120exponentially": 30413, "\u0120Hispan": 47496, "\u0120Admin": 43684, "\u0120DJs": 33497, "\u0120territory": 4284, "\u0120coverage": 1953, "\u0120\u00e2\u0136\u013e": 49842, "STDOUT": 50054, "\u0120Buffett": 17776, "paralleled": 48084, "Motor": 39482, "chains": 42433, "\u0120PS": 4868, "Den": 27267, "\u0120illum": 49055, "\u0120collision": 7329, "Gen": 15887, "\u0120Sok": 20494, "\u0120247": 24462, "\u0120Pont": 16862, "\u0120Kr": 10991, "\u0120stat": 12377, "rail": 23382, "577": 36447, "\u0120river": 4908, "Middle": 39175, "\u0120ho": 9379, "\u0120gathered": 4366, "\u0120along": 552, "\u0120gardens": 14002, "\u0120Nurs": 24583, "\u0120deterrent": 23421, "\u0120hopeful": 7917, "\u0120Magic": 9098, "\u0120])": 49670, "\u0120Process": 19149, "largest": 8377, "771": 40652, "native": 34551, "\u0133\u00e5\u00a3\u00ab": 50211, "ERO": 37553, "Me": 5096, "camera": 25092, "zb": 19831, "\u0120thrilled": 8689, "\u0120na\u00c3\u00afve": 39300, "idable": 47551, "\u0120quarterback": 2525, "oral": 15010, "\u0120promotes": 15885, "\u0120mastery": 37137, "(\"": 46469, "ting": 2577, "Hum": 40022, "\u0120Nass": 9868, "\u0120boulder": 43347, "\u0120cameras": 4387, "\u0120Energy": 2169, "\u0120Extreme": 24495, "aut": 4255, "\u00c4": 649, "ensing": 21591, "\u0120amber": 37156, "\u0120unp": 23089, "Filename": 49646, "Grant": 41793, "Tech": 14396, "\u0120patch": 9202, "\u0120creativity": 11140, "\u0120hedge": 4445, "ilantro": 37931, "\u0120credit": 1361, "\u0120Directors": 12131, "\u0120doorway": 37951, "\u0120`": 22209, "\u0120utilized": 20139, "\u0120society": 2313, "amon": 22704, "528": 38440, "\u0120pessimistic": 32415, "Export": 47671, "\u0120father": 1150, "\u0120roller": 15950, "\u0120Store": 7248, "\u0120dig": 8512, "\u0120proved": 4362, "\u0120charts": 12201, "aci": 5014, "\u0120wolf": 23255, "\u0120Finnish": 21533, "\u0120Venezuel": 28148, "\u0120Toggle": 48296, "\u0120EVE": 46748, "\u0120depri": 35696, "\u0120Brexit": 2404, "\u0120Dash": 18946, "\u0120ML": 10725, "shows": 35624, "iba": 15577, "strument": 41392, "\u0120favourites": 14583, "\u0120decree": 20156, "lished": 49411, "DEP": 41372, "\u0120scratching": 30204, "\u0120Sweet": 10959, "\u0120retains": 23550, "Hmm": 47519, "\u0120fs": 48415, "\u0120knew": 1467, "\u0120Cardinal": 13966, "RP": 15901, "\u0120Already": 14896, "\u0120adventures": 18848, "enda": 15205, "dating": 40651, "Ko": 42362, "||||": 49859, "\u0120ANN": 31256, "LB": 29920, "\u0120icons": 21681, "ombo": 21931, "\u0120remains": 1189, "quire": 17446, "\u0120lawful": 23660, "\u0120flashed": 23116, "535": 37020, "\u0120additives": 36254, "\u0120rehearsal": 24478, "\u0120dreaming": 26240, "\u0120interven": 34604, "\u0120baking": 14814, "\u0120Wyoming": 11027, "!)": 13278, "\u0120ki": 27651, "dyl": 48541, "\u0120professor": 3097, "\u01201922": 36039, "\u0120disingen": 39622, "\u0120proves": 14476, "lement": 13767, "qi": 26017, "\u0120Span": 28967, "585": 34921, "\u0120delusions": 43267, "aha": 11695, "\u0120(#": 34199, "\u0120Value": 11714, "\u0120gast": 26394, "\u0120soluble": 45132, "\u0120Trib": 24311, "\u0120Scale": 33256, "\u0120freight": 14592, "\u0120Lovely": 40488, "\u0120pept": 39950, "\u0120managing": 4196, "\u0120Shot": 20796, "IDA": 28887, "\u0120not": 45, "Paul": 12083, "\u0120vic": 32438, "Entity": 49448, "\u0120Kodi": 34754, "axies": 47957, "\u0120tot": 11563, "\u0120councillors": 14810, "Inv": 42782, "464": 38888, "rypted": 47333, "\u0120bene": 42364, "\u0120Quantity": 47675, "\u0120Hazard": 15031, "\u0120Wonderland": 35607, "\u0120include": 680, "eas": 29358, "orney": 42276, "\u0120Sao": 20960, "\u0120assists": 3481, "\u0120rifle": 11642, "sche": 25383, "\u0120Hague": 24852, "\u0120comma": 46623, "\u0120ign": 29852, "\u0120handed": 4507, "\u0120membranes": 42037, "\u0120Benn": 18524, "\u0120reimb": 28248, "\u0120Sie": 17023, "\u0120Cal": 2912, "\u0120sponsoring": 25205, "\u00c3\u013d": 49506, "\u0120hinges": 33374, "serving": 20017, "\u0120IPO": 9677, "031": 41317, "\u0120specimen": 38546, "\u0120denounced": 16978, "des": 10067, "\u0120Nu": 12907, "E": 717, "existent": 31453, "\u0120revolution": 7977, "\u0120TP": 31847, "oured": 8855, "fre": 18178, "Ep": 39318, "\u0120Yamato": 47562, "Motion": 44088, "105": 15274, "\u0120disclosed": 4638, "swer": 48977, "controlled": 9947, "\u0120concede": 23636, "ogly": 39218, "Stretch": 48519, "\u0120adherence": 31552, "\u0120reckoning": 31423, "\u0120202": 22991, "\u0120characteristic": 26293, "\u0120tenure": 7703, "\u0120confirmation": 7036, "\u0120persu": 31356, "\u0120zoom": 21762, "tl": 34842, "dev": 20068, "\u0120sizeable": 25965, "\u0120laborers": 37735, "\u0120repressive": 37868, "\u0120tore": 17200, "\u0120Difficulty": 45240, "eryl": 25309, "----": 44259, "thanks": 39563, "\u0120portrait": 13369, "\u0120Fernandez": 14968, "\u0120Directions": 38490, "\u0120conflicted": 34428, "\u0120Nadu": 17732, "Which": 32251, "ain": 1851, "\u0120ones": 1980, "\u0120accelerator": 31463, "\u0120Eater": 40538, "\u0120supporter": 9906, "\u0120manifesto": 20467, "At": 3750, "\u0120laud": 31014, "iod": 22694, "\u0120Anything": 21893, "\u0120illiter": 37547, "\u0120grill": 20212, "\u0120reservoir": 22039, "\u0120SB": 13944, "\u0120assassins": 43355, "cknow": 47678, "rez": 13208, "\u0120ADA": 38376, "\u0120CBO": 27084, "\u00e3\u0123\u00ae\u00e5\u00ae": 49957, "\u0120Hide": 27646, "yx": 37119, "\u0120GH": 22562, "\u0120crit": 28024, "\u0120Dinner": 18171, "\u0120Const": 11242, "\u0120improbable": 31977, "iest": 7098, "KB": 36640, "\u0120eclipse": 10784, "\u0120grade": 4978, "stan": 22398, "Snow": 31100, "\u0120commence": 19403, "\u0143\u0136": 49898, "\u0120raging": 23333, "\u0120rel": 6258, "having": 37167, "pod": 40762, "ey": 2981, "\u0120Citadel": 34271, "\u0120legion": 37416, "\u0120ballistic": 11117, "\u0120mesh": 22148, "\u0120narcissistic": 42505, "\u0120occurrence": 21263, "IVERS": 30530, "iller": 8690, "\u0120raft": 18992, "ignant": 35090, "equipped": 29467, "309": 31573, "rely": 39041, "\u0120Demo": 44112, "\u0120tantal": 33496, "imeters": 38983, "\u0120Conservatives": 13251, "\u01201886": 44504, "\u0120Kare": 19492, "\u0120overriding": 38078, "mx": 42385, "\u0120goof": 40504, "ixties": 38180, "\u00af": 10965, "literally": 39417, "\u0120targeting": 5551, "\u0120drawings": 21373, "Op": 13926, "\u0120wind": 2508, "\u0120Greenland": 31709, "ports": 8303, "anos": 21850, "\u0120Unloaded": 49746, "122": 21948, "\u0120stere": 45254, "\u0120insists": 9838, "\u0120Johnston": 13870, "\u0120audience": 2437, "\u0120shadowy": 38482, "\u0120Wil": 3884, "MO": 8756, "\u0120Nikon": 29850, "\u0120Gard": 11546, "\u0120Sieg": 35494, "\u0120pictures": 3493, "fer": 6646, "abad": 7826, "\u0120Macro": 32449, "\u0120Expert": 26721, "\u0120Les": 6891, "\u0120racing": 4930, "\u0139": 6800, "\u0120Casey": 9239, "TIME": 39007, "\u0120Drum": 18165, "mega": 44238, "\u0120Goddess": 41838, "\u0120Ferrari": 10482, "modified": 44887, "\u0120refer": 9115, "\u0120recruited": 14577, "\u0120Gut": 21551, "\u0120missionaries": 39371, "\u0120Quality": 13343, "iosyncr": 49159, "\u0120fascinated": 27025, "about": 9006, "\u0120Settlement": 33629, "estead": 23628, "\u0120Austria": 9950, "\u0120precinct": 30285, "\u0120attractiveness": 33179, "Magn": 43600, "\u0120manifest": 19318, "\u0120anguish": 32446, "\u0120carriers": 9816, ".\u00ef\u00bf\u00bd": 35547, "\u0120supplier": 9509, "digy": 37243, "\u0120motel": 25397, "\u0120syrup": 21580, "\u0120Type": 7773, "\u0120explorers": 38897, "\u0120Republican": 1172, "\u0120language": 2777, "m": 119, "\u0120Polar": 26279, "onz": 18085, "\u0120Misty": 38793, "\u0120Dum": 16664, "\u0120Individual": 22366, "ee": 1942, "alker": 38198, "\u0120hall": 5179, "\u0120disgusting": 21096, "\u0120ROB": 31989, "\u0120intensity": 10603, "\u0120initially": 3225, "\u0120Schw": 14376, "245": 24990, "\u0120TRAN": 26933, "\u0120Antioch": 33604, "\u0120fallacy": 44469, "\u0120rake": 37801, "\u0120tutorials": 38892, "bral": 44283, "\u0120Nebraska": 8688, "\u0120305": 29114, "\u0120own": 308, "oking": 14805, "Forest": 42542, "lling": 7633, "\u0120atrocities": 21692, "uth": 5914, "\u0120guiActiveUn": 50162, "\u0120bondage": 42330, "hip": 4128, "\u0120Sno": 29952, "\u00c4\u0141": 26828, "\u0120203": 23041, "\u0120Boot": 21524, "\u0120shar": 29816, "\u0120transporting": 21778, "\u0120Developers": 27585, "uben": 26517, "eor": 43746, "\u0120brutality": 20509, "\u0120breakthrough": 10118, "radical": 35864, "\u0120MED": 22718, "herer": 38728, "\u0120passers": 29506, "\u0120prin": 27222, "\u0120Wilkinson": 23992, "\u0120exhaust": 19379, "herence": 40584, "transfer": 40095, "isions": 12545, "\u0120presc": 39591, "\u0120debris": 8824, "\u0120Ireland": 2487, "Kay": 28421, "Upon": 39986, "Morgan": 40102, "\u0120Honor": 11403, "\u0120Mighty": 34028, "enforcement": 35399, "pta": 25890, "\u0120horsepower": 22325, "\u0120limit": 3000, "\u0120applause": 17288, "\u0120results": 775, "\u0120Codex": 46991, "\u0120extremists": 16281, "specified": 46314, "\u0120insulated": 36027, "embedreportprint": 50171, "\u0120pt": 46238, "\u0120cheat": 23532, "\u0120eco": 21139, "ationally": 29688, "\u0120Chinese": 1111, "ANCE": 15255, "jj": 33850, "Tan": 40461, "\u0120camps": 7376, "\u0120defence": 2994, "niper": 48331, "\u012075": 3337, "output": 46234, "ermott": 18737, "\u0120trademarks": 23348, "onic": 10003, "\u0120rentals": 20498, "adapt": 43199, "\u0120FBI": 2448, "\u0120Gur": 11062, "Fall": 31593, "\u0120Mori": 32097, "\u0120skirts": 31296, "changes": 34980, "\u0120Porter": 9028, "\u0120Draw": 29109, "\u0120aug": 26713, "\u0120Rud": 19257, "\u0120tracing": 35105, "swers": 48792, "annon": 17375, "\u0120bribes": 19426, "\u0120disarm": 27220, "\u0120fight": 1032, "ibraries": 47437, "\u0120trail": 5592, "Alexander": 33409, "\u0120mutation": 31425, "selected": 41642, "\u0120networking": 11745, "mington": 36884, "\u0120bout": 9953, "\u0120Coin": 17203, "\u0120careg": 31745, "aucas": 47317, "1968": 44808, "\u0120suffix": 47503, "\u0120\u00e2\u012b\u00a5": 46422, "\u0120checking": 8405, "uters": 13188, "pent": 33475, "2200": 41573, "\u0120arbitrary": 23501, "\u0120Specifications": 38212, "\u0120Shakespeare": 16538, "\u0120TOTAL": 36575, "\u0120urgently": 20497, "\u0120Huntington": 18073, "Vert": 42195, "\u00ef\u00bf\u00bd\u00ef\u00bf\u00bd\u00ef\u00bf\u00bd\u00ef\u00bf\u00bd": 48697, "\u0120Load": 38355, "\u0120cannot": 1395, "obj": 46134, "\u0120going": 164, "\u0120le": 2084, "Qaida": 28448, "mingham": 42754, "\u0120disappear": 14529, "\u0120nonetheless": 17428, "\u0120Thunderbolt": 40072, "\u0120nightmares": 31634, ">>\\": 50193, "rights": 24733, "\u0120awa": 48387, "leading": 10140, "\u0120\u00e2\u012a\u00bc": 49447, "\u0120Advantage": 29113, "\u0120470": 35041, "\u0120criticized": 5888, "Regular": 46309, "\u0120Neutral": 35133, "\u0120lied": 15005, "\u0120Fiorina": 45804, "AP": 591, "Universal": 35011, "Con": 9157, "\u0120Kil": 9948, "\u0120thw": 48416, "uture": 47028, "Route": 43929, "\u0120shops": 6464, "ais": 5655, "ann": 2279, "\u01201957": 23778, "\u0120cir": 40441, "\u0120WORLD": 32697, "Quant": 44572, "\u0120artisan": 28639, "\u0120definite": 26606, "liners": 18444, "relation": 47114, "/": 73, "\u0120witness": 4562, "ster": 3121, "\u0120facilit": 30893, "\u0120Buster": 31771, "\u0120pedigree": 30149, "Events": 43248, "\u0120Named": 30436, "\u0120TYPE": 44731, "\u0120diff": 25871, "auts": 34595, "\u0120unde": 23696, "\u0120Jelly": 39912, "\u0120carefully": 7015, "\u0120Ivory": 22256, "athom": 29125, "\u0120Sixers": 21200, "ategic": 32281, "\u0120378": 41823, "\u0120divide": 11079, "524": 38803, "Mania": 20991, "aintain": 37205, "\u0120arranging": 28384, "\u0120Said": 13951, "market": 2989, "\u0120Purpose": 33482, "\u0120inserts": 41470, "Mot": 41676, "\u0120lac": 21789, "\u0120reminders": 27803, "incial": 42726, "\u0120twenty": 10328, "\u0120LONG": 34128, "\u0120Disorder": 36723, "\u0120Gamma": 43566, "\u0120cube": 37179, "\u0120Jennings": 16777, "\u0120radio": 3188, "\u0120orthodox": 41347, "According": 14693, "\u0120enumer": 41949, "\u0120Sole": 28278, "uz": 4987, "\u0120MacBook": 20450, "\u0120scientist": 9744, "\u0120Hardware": 29575, "vae": 45897, "\u0120Lah": 10838, "\u0120brew": 20040, "\u0120comm": 7034, "\u0120symptom": 28667, "\u0120roads": 3197, "\u0120Tune": 27879, "\u0120und": 2432, "\u0120Chic": 25334, "\u0120parting": 31125, "authorized": 42067, "\u0120injured": 1710, "icol": 26609, "\u0120ratio": 1750, "\u0120drills": 13553, "\u0120platoon": 38643, "\u0120cellul": 37582, "\u0120TRUMP": 21751, "il": 718, "\u0120composure": 29140, "\u0120witches": 39699, "\u0120Psychology": 32255, "./": 21594, "\u0120Play": 3902, "\u0120follower": 31744, "\u0120Sir": 5348, "pants": 33609, "'?": 35661, "\u0120intimid": 46198, "<": 41552, "\u0120prote": 27067, "\u0120nationalism": 21847, "igon": 32410, "\u0120exaggeration": 38875, "\u0120nurses": 10633, "\u0120digestion": 38804, "\u0120mango": 32184, "Susan": 38621, "izza": 35280, "\u0120Ore": 13277, "\u0120Recep": 23977, "\u0120kne": 25619, "enemy": 41320, "camp": 21669, "imes": 9452, "\u0120246": 35303, "\u0120Pioneer": 16999, "\u0120ingested": 39840, "\u0120surpass": 14874, "rss": 47820, "\u0120suited": 14756, "\u0120tighten": 16888, "Georg": 43272, "rog": 10191, "\u0120trivial": 30063, "\u0120men": 604, "\u0120nutrition": 10894, "\u0120ridiculous": 10861, "\u0120menstrual": 35920, "atri": 24879, "\u0120Appalachian": 28480, "\u0120Includes": 37626, "\u0120\u00e2\u0138\u012a": 49306, "\u0120readers": 5360, "\u01201899": 43130, "\u0120hazards": 21125, "012": 37524, "GEN": 30965, "\u0120economical": 33366, "\u0120elementary": 10891, "\u0120Dad": 13404, "\u0120actively": 7313, "\u0120Frederick": 17557, "\u012023": 883, "\u0120Zoe": 18922, "\u0120accumulation": 20477, "\u0120Jerome": 15385, "hew": 16152, "\u0120EMS": 19997, "\u0120augment": 29699, "\u0120Gmail": 29004, "earth": 25581, "ercise": 42118, "\u0120gonna": 6908, "\u01208": 290, "\u0120UK": 987, "\u0120foremost": 16501, "\u0120UE": 37084, "\u0120Strait": 23658, "avid": 23656, "\u0120Rams": 5474, "\u0120eggs": 7689, "\u0120mc": 44355, "\u0120consciousness": 16253, "\u0120closure": 6803, "\u0120pods": 31115, "\u0120emotions": 8597, "Act": 26880, "\u0120Razer": 34542, "isen": 16793, "\u0120outings": 16362, "\u0120condemns": 33963, "\u0120earth": 6872, "ocol": 23558, "995": 30739, "\u00c2\u0142\u00c2\u0142": 50142, "isted": 15346, "\u0120HUD": 29844, "begin": 43230, "\u0120ubiqu": 43641, "\u0120Technique": 46252, "Pixel": 46548, "\u0120misled": 25022, "posium": 26036, "\u0120real": 588, "inches": 31203, "\u0120Kramer": 24957, "igor": 24929, "13": 1558, "\u0120Feel": 22079, "\u0120Bridgewater": 29628, "ymm": 46246, "\u00b4": 20024, "\u0120adapters": 44449, "705": 35278, "\u0120lam": 24160, "\u0120column": 6730, "RIPT": 38612, "winter": 31421, "claimed": 29639, "\u0120Disk": 39770, "\u0120Han": 6090, "\u0120till": 6612, "\u0120Nath": 22634, "Single": 44119, "SAM": 45159, "\u0120Heal": 42064, "reciation": 29605, "\u0120disciplines": 24148, "793": 40832, ":'": 45393, "\u0120Maybe": 5359, "command": 41483, "\u0120od": 7452, "\u0120legitimately": 34838, "Semitism": 19155, "\u0120Muller": 28858, "liber": 39176, "\u0120Erie": 16525, "\u0120Friedrich": 36960, "\":[\"": 40389, "\u0120Ples": 45961, "\u0120landsc": 19342, "checked": 41641, "ti": 8063, "\u0141": 4333, "\u0120jam": 11914, "ighter": 24327, "oldown": 49950, "\u0120bustling": 29019, "ulously": 29772, "DR": 10644, "\u0120!!": 43912, "united": 33557, "\u0120Triumph": 34839, "\u0120incumbent": 9861, "\u0120walls": 6347, "\u0120Wagner": 11634, "\u0120Mormon": 29645, "\u0120Breaking": 17252, "\u0120Intelligent": 34106, "mon": 5806, "\u0120Equip": 44064, "\u0120crave": 34105, "\u0120Torres": 13902, "\u0120Cab": 8434, "\u0120infer": 40182, "Package": 48680, "\u0120underlying": 7482, "\u0120Harris": 3740, "\u0120Yoga": 20594, "\u0120BTC": 7432, "\u0120reckoned": 35108, "\u0120Ub": 31817, "\u0120nutritious": 30426, "\u0120alive": 4299, "gnu": 49022, "\u0120streamlined": 28455, "\u0120grind": 16655, "\u0120loaf": 34998, "\u0120succinct": 39280, "\u0120set": 278, "\u0120tea": 6845, "person": 5970, "\u0120Sequence": 47134, "Function": 47802, "\u0120billing": 19892, "\u0120phones": 4247, "\u01201050": 43504, "\u0120conve": 26991, "\u0120Peace": 7774, "attacks": 25764, "\u0120mobilized": 35181, "\u0120Hand": 7406, "though": 18401, "decl": 32639, "\u0120disbel": 45668, "esley": 36664, "\u0120mistrust": 34873, "\u0120Pap": 11846, "\u0120Sana": 24497, "\u0120grieving": 22567, "iltration": 43605, "\u0120Brad": 4770, "\u0120worth": 966, "ociated": 47422, "\u0120en": 1177, "\u0120Sco": 30735, "\u0120Name": 10704, "\u0120Rooney": 14769, "\u0120luxury": 4808, "Small": 34647, "\u0120probe": 4513, "IRO": 16790, "heddar": 32323, "\u0120Carnage": 47521, "\u0120Reverend": 29622, "\u0120slated": 8735, "Nic": 31988, "\u0120constraints": 16311, "\u0120cont": 8541, "\u0120Salem": 15942, "\u0120binaries": 47061, "\u0120Pep": 16115, "registered": 24580, "inus": 43263, "\u0120Wend": 21256, "urrent": 41937, "uploads": 12799, "\u0120Roland": 15897, "seen": 24196, "\u0120widespread": 5859, "rower": 40956, "\u0120conducive": 27273, "\u0120anticipation": 14714, "erella": 45414, "\u0120Patt": 15414, "met": 5646, "\u0120secular": 16413, "Phones": 48083, "\u0120apologized": 11184, "\u0120combination": 4069, "ITNESS": 46094, "encing": 17725, "\u0120Auschwitz": 36531, "\u0120asymm": 34228, "\u0120Ath": 17463, "code": 20414, "\u0120Whitney": 17249, "defined": 30764, "\u0120AA": 14121, "\u0120Preferences": 45976, "\u01200000": 47489, "\u0120Healthy": 21487, "Artist": 45862, "\u0120slides": 19583, "\u0120nighttime": 32228, "\u0120California": 886, "\u0120COP": 14637, "+.": 27079, "\u0120Rise": 20644, "Ben": 17521, "\u0120ox": 33665, "\u0120constructing": 25886, "birds": 17921, "${": 49316, "\u0120crime": 1846, "\u0120Annual": 7453, "Post": 21585, "north": 25407, "ono": 16405, "\u0120Revival": 34100, "\u0120waving": 20615, "\u01201934": 28955, "\u0120Panzer": 46090, "\u0120Congressional": 9588, "nik": 8256, "leon": 38904, "\u0120overwhelm": 36986, "\u0120jog": 26993, "\u0120Berry": 11849, "\u0120Thread": 6032, "\u0120Boone": 17598, "Chem": 41302, "rarily": 48243, "aron": 9303, "311": 35925, "\u0120hunger": 12226, "\u0120Beer": 15065, "\u0120gist": 43007, "\u0120elev": 14478, "\u0120Air": 1754, "\u0120approved": 2033, "bial": 45744, "ideos": 47586, "\u0120aeros": 40161, "\u0120surround": 21104, "\u0120starved": 35365, "quality": 8634, "\u0120Koz": 28157, "\u0120assail": 48315, "\u0120illegally": 5176, "\u0120Netherlands": 7556, "\u0120contend": 16203, "\u0120Tesla": 4919, "\u0120Neville": 21344, "\u0120implication": 29264, "\u0120Carm": 10636, "\u00e2\u0138\u012a\u00e2\u0138\u012a\u00e2\u0138\u012a\u00e2\u0138\u012a": 49881, "Compan": 49028, "\u0120deflation": 24245, "\u0120Years": 10426, "urger": 25278, "alone": 22446, "\u0120change": 464, "\u0120Stef": 18509, "\u0120billboard": 29621, "Church": 43138, "\u0120compounds": 18291, "\u0120Kyr": 17439, "/*": 49051, "\u0120prose": 30796, "artz": 32577, "Spot": 32110, "noon": 20466, "\u0120clasp": 42809, "\u0120Crimean": 38480, "ieties": 29590, "\u0120strikingly": 39349, "\u0120fast": 1769, "Personally": 40026, "ivan": 18356, "\u0120274": 38415, "Need": 40181, "Boo": 45599, "motion": 35474, "\u0120treating": 8959, "leaf": 24999, "\u0120milk": 5803, "\u0120He": 91, "330": 21190, "\u0120agreeing": 14176, "\u0120Wouldn": 39269, "\u0120rules": 1492, "Kelly": 34313, "\u0120experiencing": 7242, "worst": 24390, "\u0120conson": 46098, "qualified": 26505, ")/": 36098, "\u0120lightsaber": 45327, "\u0120picture": 2170, "\u0120qualify": 6954, "\u0120throughout": 1328, "\u0120respect": 2098, "\u0120continuously": 13307, "\u0120Commands": 47901, "\u0120dirt": 10667, "ortium": 48629, "\u0120Submit": 20503, "chip": 16142, "\u0120Fix": 25088, "\u0120\u00d9\u012a": 41519, "\u0120Vampire": 39119, "\u0120safeguards": 25563, "\u0120Move": 18001, "\u0120flock": 23575, "\u0120Effects": 37759, "\u0120152": 23902, "\u0120impecc": 28462, "\u0120airstrikes": 21176, "OPER": 35918, "\u0120tink": 37755, "\u0120Bron": 17228, "\u0120Telegram": 20681, "\u0120honesty": 19439, "secution": 31068, "boot": 40571, "ivariate": 48449, "ynasty": 47287, "\u0120Dres": 41619, "NER": 20196, "Left": 39961, "ftime": 40749, "\u0120Average": 8317, "\u0120increasingly": 3150, "\u0120exclusive": 5451, "\u0120whisky": 30568, "ification": 5000, "\u00e8\u00a1": 47356, "\u0120Recipes": 40881, "\u0120contam": 43337, "ocative": 36041, "\u0120Giov": 33829, "ln": 8502, "\u0120helicopter": 7324, "\u0120per": 228, "\u0120acquitted": 17871, "\u0120Pul": 13006, "\u0120singles": 7695, "\u0120stiff": 13116, "\u0120radius": 29943, "\u0120pathway": 19165, "lord": 30669, "DP": 5174, "\u0120denim": 21288, "\u0120spectacular": 8694, "\u0120Brendan": 13015, "\u0120Lash": 25164, "\u0120oak": 25033, "\u0120Hz": 46265, "aris": 17661, "oun": 7928, "Cong": 42337, "\u0120robbery": 6279, "\u0120Nar": 10735, "Ser": 28498, "\u0120Kens": 15485, "\u0120mapped": 33493, "\u0120pledge": 9461, "\u0120volcano": 17321, "\u0120Senegal": 18490, "\u0120rainfall": 10198, "\u0120shy": 9152, "disciplinary": 32231, "Value": 33977, "\u0120started": 554, "\u0120Murd": 28109, "aru": 21407, "\u0120Loving": 34418, "\u00c3\u00b1": 6303, "\u0120Bu": 7351, "\u0120Split": 27629, "\u0120Ronald": 9317, "\u0120Bark": 22353, "\u0120phil": 43091, "\u0120grades": 11165, "\u0120Harvey": 4641, "ailability": 49403, "\u0120obligation": 9061, "\u0120Robotics": 29289, "webkit": 49286, "\u0120DES": 24566, "\u00e7\u0136\u0141": 48998, "\u0120Diego": 3402, "\u0120Agents": 24854, "clean": 28401, "\u0120Chamberlain": 31737, "\u0120Beaver": 21481, "inators": 35077, "\u0120deserts": 38905, "\u0120prudent": 22652, "\u0120excuses": 19791, "vable": 43149, "prime": 28752, "Y": 975, "pei": 24309, "\u0120techn": 23839, "\u0120although": 1712, "\u0120clouds": 10722, "\u0120internship": 27652, "\u0120Boise": 20871, "\u0120pipes": 15222, "\u0120Forces": 8717, "\u0120reproduce": 33942, "\u0120Bounce": 44111, "\u0120NETWORK": 31631, "\u0120background": 3618, "\u0120press": 1228, "\u0120Jem": 26614, "\u0120Gathering": 36465, "\u0120apprehended": 21539, "\u0120mentioned": 2801, "\u0120gre": 14382, "\u0120Excellence": 19092, "\u0120cliff": 15344, "DM": 25652, "\u0120Motors": 8484, "Ge": 20981, "\u0120Hmm": 44258, "\u0120diving": 12909, "\u0120confessions": 39597, "\u0120depos": 27649, "idem": 42896, "ansson": 26277, "\u0120residing": 28111, "oppable": 46160, "\u0120tease": 29993, "\u0120dotted": 30176, "Loader": 49621, "oux": 20545, "kat": 18287, "\u0120seal": 10192, "\u0120suspicions": 24460, "\u0120descriptions": 24173, "\u0120claimants": 32921, "\u0120notified": 9110, "\u0120akin": 21468, "\u0120investigators": 3725, "\u0120scripture": 41158, "\u0120depression": 6943, "\u0120Lean": 37882, "\u0120perplex": 33708, "\u0120hybrids": 34297, "\u0120Arsenal": 4152, "rians": 36321, "\u0120commands": 16388, "\u0120WARN": 47612, "\u0120427": 41518, "EST": 4923, "hearted": 18948, "\u0120Pearl": 14109, "\u0120Marketing": 9020, "activ": 34276, "\u0120detecting": 30985, "\u0120Mikhail": 29300, "small": 23115, "enton": 14492, "asure": 24669, "\u0120recurrent": 35583, "\u0120Rasmussen": 31710, "\u0120Naturally": 25041, "\u0120jack": 10267, "\u0120transm": 37436, "might": 35457, "\u0120XI": 15419, "\u0120backing": 6027, "cook": 35190, "\u0120Tech": 4569, "\u00e3\u0125\u012b\u00e3\u0125\u00a9\u00e3\u0124\u00b4\u00e3\u0125\u00b3": 50027, "Social": 28565, "\u0120deforestation": 35552, "\u0120mode": 5745, "\u0120medd": 31510, "\u0120holy": 15410, "liness": 24060, "\u0120Below": 4421, ">>>>>>>>": 46844, "\u0120365": 19671, "nesty": 45154, "\u0120CSV": 47896, "\u0120development": 709, "Leaks": 43352, "[\"": 49329, "\u0120Lois": 31772, "\u0120gy": 18124, "\u0120miracles": 36893, "\u0120253": 35651, "coe": 25595, "ppers": 14403, "\u0120fe": 10668, "\u0120aware": 2542, "\u0120Crossing": 27245, "\u0120soy": 9092, "\u0120remarkable": 7063, "ism": 1809, "\u0120Pict": 17248, "final": 6156, "\u0120IO": 38266, "\u0120Requirements": 41333, "\u0120Reduced": 41960, "\u0120penn": 30081, "\u0120Rome": 8947, "\u0120espionage": 23779, "\u0120seaw": 26996, "\u0120didn": 399, "\u0120Hess": 26436, "\u0120dismantle": 25411, "\u0120laun": 48841, "\u0120tax": 629, "\u0120program": 586, "\u0120clerks": 33948, "\u0120owing": 14395, "\u0120Neuroscience": 41942, "\u0120niche": 14788, "\u0120Bill": 1585, "on": 261, "variable": 48123, "\u0120Person": 18404, "510": 32380, "JC": 31700, "ortion": 33938, "nav": 35608, "487": 37795, "\u0120shutdown": 5001, "\u012079": 7589, "\u0120illustration": 21276, "success": 42776, ".[": 31274, "\u0120Presumably": 41366, "\u0120grandma": 30894, "\u0120Brees": 21079, "itri": 30142, "\u0120emphas": 17237, "Help": 28780, "\u0120Disco": 41240, "\u00e4\u00b8\u012f": 48664, "\u0120overpower": 37833, "\u0120waiting": 2445, "\u0120Rarity": 49120, "\u0120AS": 6015, "wiki": 47214, "\u0120learns": 25269, "ority": 30969, "\u0120Iraqi": 7780, "\u0120Championship": 3261, "\u0120soaring": 15447, "\u0120Peggy": 26733, "\u0120disperse": 29056, "\u0120bombers": 20824, "\u0120You": 370, "igators": 36084, "\u0120Eddie": 9257, "\u0120JPM": 33349, "inea": 33581, "\u0120Source": 4253, "\u0120markers": 22462, "Aw": 38145, "illet": 39844, "\u0120Weinstein": 6669, "\u0120pause": 13787, "\u0120painted": 10122, "\u0120behavioral": 19184, "\u0120traverse": 40660, "\u0120Civic": 14906, "aved": 12061, "net": 4135, "\u0120Reporting": 22100, "\u0120Establishment": 36894, "letico": 12533, "ected": 21722, "igers": 41581, "omon": 28344, "See": 19224, "\u00e3\u0125\u00af": 49770, "\u0120preserved": 18772, "\u0120feat": 11930, "Mis": 44089, "involved": 30013, "\u0120suggests": 3649, "forming": 11847, "\u0120capitalists": 36927, "\u0120explan": 49473, "\u0120worrisome": 29611, "\u0120Reborn": 47809, "\u0120pulses": 33274, "\u0120lyn": 23661, "recorded": 36902, "\u0120giving": 1311, "Lago": 26040, "\u0120weap": 49772, "Amb": 36376, "can": 7424, "435": 33115, "acious": 15525, "\u00e5\u0124": 49264, "\u0120Chavez": 14916, "Beast": 45175, "gn": 16993, "\u0120thou": 44761, "\u0120looked": 1415, "\u0120Jas": 15504, "\u0120eternity": 37077, "\u0120GPUs": 37658, "\u0120immedi": 43906, "anamo": 49018, "\u0120vul": 42643, "\u0120graded": 35175, "\u0120297": 40588, "\u0120Quick": 13287, "\u0120acquired": 3566, "maps": 44754, "\u0120biological": 12243, "\u0120pooled": 41880, "\u0120Hearthstone": 46338, "\u0120paint": 6345, "\u0120Birth": 27178, "\u0120Qur": 42878, "\u0120monuments": 17525, "\u0120Cutter": 44390, "Head": 28873, "\u0120wiping": 29740, "\u0120retracted": 40486, "Empty": 47819, "\u0120tug": 24447, "\u0120McMaster": 18113, "\u0120superiors": 38045, "\u0120hilar": 36236, "ailable": 38484, "\u0120machine": 3563, "\u0120Greater": 9312, "\u0120slic": 46146, "\u0120climbing": 10907, "\u0120Ta": 9002, "\u0120cohorts": 38353, "\u0120moderates": 32519, "Written": 45225, "\u0120missile": 4379, "immigration": 31793, "\u0120hefty": 15234, "\u0120DEBUG": 49692, "\u0120bree": 21895, "Marco": 33441, "\u0120lies": 5738, "\u0120spec": 12002, "accessible": 43343, "\u0120shrew": 36943, "\u00e2\u0128\u0134": 48552, "arch": 13161, "\u0120Admission": 18032, "\u0120patents": 17848, "adia": 20329, "\u0120trailing": 12564, "ited": 4560, "\u0120grassroots": 15907, "\u0120Tud": 28571, "\u0120incredible": 3997, "\u0120Strat": 21074, "\u0120Walton": 14961, "\u0120restricting": 22030, "Gab": 39767, "\u0120Board": 1785, "\u0120sleeper": 36170, "\u0120Gra": 10621, "\u0120constructor": 47073, "\u0120Stat": 15420, "ouch": 12746, "\u012043": 3557, "\u0120adjust": 9160, "\u0120staffing": 15996, "ags": 8299, "price": 17212, "\u0120Shib": 41037, "\u0120triple": 6436, "feeding": 35151, "\u0120selfies": 19571, "\u01204000": 32542, "\u0120soaking": 30441, "\u0120poverty": 5263, "\u0120photon": 44635, "\u0120Speak": 34403, "hma": 36050, "\u0120Slow": 26720, "\u0120ante": 20761, "iated": 15253, "\u0120Tinker": 42549, "\u0120Yugoslavia": 37869, "\u0120coefficient": 45979, "({": 48377, "uchi": 21777, "\u0120duel": 24545, "debian": 49349, "\u0120Lori": 22421, "\u0120Degree": 27631, "onge": 28879, "\u0120succ": 25047, "Neg": 37128, "\u0120intricate": 25210, "\u0120911": 7158, "Instance": 49483, "\u0120admiration": 24287, "\u0120broader": 5153, "799": 33333, "\u0120Assembly": 3389, "\u0120bullshit": 37568, "\u0120relations": 3115, "pac": 21091, "\u0120systems": 1743, "\u0120Appendix": 40643, "\u0120generously": 31306, "\u0120Fraser": 11784, "\u0120tracker": 24880, "ivalry": 43823, "soc": 32460, "\u0120222": 25884, "ogenic": 23982, "\u0120Vintage": 31750, "\u0120Chel": 21626, "\u0120want": 236, "\u0120awesome": 6344, "itars": 45892, "Items": 48485, "\u0120Opportun": 22245, "\u0120creatures": 15916, "ongh": 41860, "\u0120waived": 17783, "\u0120modify": 23209, "plugin": 49391, "itudes": 25917, "\u0120suffering": 3606, "\u0120quirky": 22364, "\u0120RF": 18044, "omez": 40304, "\u0120cerv": 44284, "Der": 34788, "\u0120redist": 27137, "\u0120Sleep": 19640, "\u0120Catalonia": 17393, "het": 4626, "Dear": 23314, "\u0120Burst": 44749, "\u0120guitars": 29589, "\u0120Pick": 8184, "\u0120To": 598, "\u0120Dillon": 17599, "\u0120wi": 33755, "\u0120pumps": 15555, "\u0120injected": 22993, "\u0120odd": 8372, "\u0120Atlanta": 3317, "cker": 8956, "ocytes": 44601, "\u0120Called": 28277, "\u0120trave": 49352, "\u0120blah": 38596, "\u0120hearty": 32221, "\u0120Overwatch": 32736, "\u0120impossibility": 44778, "\u0120vicinity": 22592, "Yang": 47235, "acies": 15668, "\u0120senseless": 28846, "\u0120rooms": 5351, "\u0120unlike": 7328, "had": 12186, "office": 23252, "\u00e2\u013a\u0127": 45814, "\u0120CG": 33354, "\u0120royal": 5754, "276": 31782, "\u0120bump": 8792, "\u0120Carson": 8742, "\u0120phys": 38016, "bent": 35273, "\u0120fireworks": 10756, "\u0120Goldman": 6765, "\u0120Walk": 9693, "\u0120Judd": 26095, "\u0120LCS": 43109, "\u0120Hermes": 37134, "end": 1397, "assetsadobe": 50230, "\u0120Thinking": 31577, "xf": 45678, "\u0120Fowler": 13679, "script": 32761, "\u0120Joh": 9924, "ilk": 32832, "\u0120stared": 32392, "Fuck": 44823, "\u00c3\u0143n": 17010, "68": 4671, "\u0120tro": 14168, "void": 47908, "\u0120facing": 2114, "\u0120tart": 27468, "advertising": 46429, "\u0120wit": 22094, "\u0120Noble": 14068, "\u0120Bonnie": 22621, "\u0120Founders": 35475, "\u0120Epidem": 42443, "\u0120circumvent": 29487, "\u0120sized": 23855, "\u0120Hampton": 15737, "hner": 34127, "\u0120PCI": 40770, "\u0120Zam": 18859, "\u0120minced": 37570, "\u0120Def": 7858, "\u0120Business": 2090, "\u0120Corpor": 26091, "lesh": 42458, "\u0120modified": 10639, "\u0120quality": 1318, "\u0120confisc": 32240, "\u0120spray": 11782, "174": 29221, "\u0120strat": 30789, "\u0120driver": 1393, "\u0120Cynthia": 16589, "\u0120projecting": 20440, "GoldMagikarp": 50234, "\u0120Internal": 18387, "\u0120debit": 20471, "illing": 7491, "recomm": 43140, "hospital": 40179, "\u0120comparatively": 31074, "\u0120fighting": 2190, "\u0120\u00c2\u0142\u0120\u00c2\u0142\u0120\u00c2\u0142\u0120\u00c2\u0142": 50150, "\u0120anarch": 45889, "\u0120('": 31509, "falls": 18055, "\u0120View": 3756, "ibli": 40986, "ptic": 24617, "\u0120circuits": 28993, "\u0120wells": 12252, "aminer": 46889, "ravel": 44134, "Feb": 20160, "Who": 12375, "\u0120indecent": 24502, "\u0120degener": 27462, "\u0120doubtful": 26645, "\u0120divine": 26280, "\u0120destabil": 17881, "\u0120fixed": 4460, "\u0120Goal": 17432, "redible": 29921, "\u0120oranges": 37027, "\u0120D": 211, "\u0120socialist": 17579, "\u0120manager": 1044, "mining": 33527, "\u0120Im": 5902, "\u0120showcased": 16527, "userc": 50041, "\u0120mater": 25327, "\u0120turtles": 27756, "\u0120snacks": 14967, "\u0120Architect": 29474, "icians": 17197, "Henry": 29648, "416": 30950, "\u0120Correction": 35648, "\u0120Dism": 39562, "Success": 42697, "\u0120formulation": 32018, "\u0120withdrawn": 13375, "upper": 34849, "\u0120swap": 12313, "\u0120BUT": 30518, "\u0120Antar": 48120, "issues": 40512, "Hon": 35846, "\u0120induced": 26914, ".\",\"": 46671, "\u0120Aur": 24368, "Eric": 24375, "\u0120coils": 43711, "asa": 8810, "\u0120belts": 20252, "\u0120isEnabled": 50074, "\u0120Fif": 25085, "ben": 5720, "seless": 34667, "stre": 24769, "\u0120scarce": 23581, "\u0120tac": 47800, "png": 40233, "\u0120Starbucks": 10173, "\u0120playing": 816, "\u0120satire": 31368, "myra": 38978, "\u0120intruder": 34582, "\u0120Sailor": 41535, "\u0120Enable": 42992, "\u0120intersections": 28952, "\u0120sacked": 11766, "\u0120pric": 35456, "\u0120Afghans": 33468, "etsy": 46450, "\u0120complications": 12385, "reflect": 39878, "\u0120Constantinople": 45662, "\u0120minimum": 3527, "\u0120demolished": 20766, "\u0120Zack": 17879, "\u0120admins": 45343, "\u0120Echoes": 46507, "initial": 45696, "\u0120Polaris": 35612, "ith": 3432, "NA": 4444, "estic": 23862, "ivas": 20559, "\u0120freedoms": 19513, "\u0120policeman": 20976, "\u0120predominant": 41546, "\u0120relation": 9355, "\u0120Arch": 10832, "\u0120cons": 7407, "\u0120lasts": 19646, "\u0120houses": 3960, "redited": 39618, "\u0120Victory": 15908, "urable": 24517, "\"\"": 48149, "\u0120TL": 27017, "ente": 8530, "\u0120Picks": 34191, "\u0120End": 4680, "\u0120294": 39846, "\u0120Privacy": 17005, "\u0120Clarence": 18745, "626": 37190, "\u0120Google": 1204, "S": 104, "\u0120saddle": 31383, "OTOS": 24918, "\u0120Sem": 11202, "\u0120Zhang": 16087, "\u0120Dew": 17340, "irty": 32430, "IAS": 43227, "\u0120inexper": 40513, "clipse": 45528, "atti": 13528, "\u0120candidacy": 17231, "income": 7214, "\u0120Sub": 4052, "Ros": 36354, "\u0120Honolulu": 23235, "\u0120Crow": 14088, "apes": 22179, "\u0120trough": 25921, "\u0120Fiona": 23905, "\u0120acknowled": 47390, "\u0120debuted": 13658, "\u0120mystical": 39795, "\u0120pes": 12165, "Format": 48587, "\u0120brow": 27423, "120": 10213, "ogo": 14744, "Sum": 38182, "551": 38749, "\u0120tragedy": 6906, "\u0120sustained": 5232, "sworth": 15142, "\u0120Turning": 19346, "\u0120Lyn": 14122, "Chicago": 21897, "ogue": 10149, "Vill": 38824, "\u00e7": 36714, "\u0120bombard": 42602, "\u0120STA": 31981, "\u0120current": 595, "TO": 6390, "\u0120inscription": 41980, "Android": 42375, "866": 30205, "\u0120talents": 11268, "oros": 37904, "\u0120regist": 19886, "Destroy": 47966, "\u0120Qian": 44069, "209": 27434, "\u0120punching": 20752, "\u0120Levy": 20051, "IRE": 21126, "\u0120contrace": 49704, "\u0120reproduction": 26385, "bs": 4311, "\u0120Airbus": 11016, "uits": 27734, "\u0120Navy": 5027, "\u0120conspiring": 27230, "\u0120scholarship": 10560, "\u0120Bed": 12164, "\u0120Jeff": 2321, "Requ": 47090, "includes": 25142, "\u0120apps": 3798, "\u0120Insider": 9203, "\u0120Brisbane": 10157, "\u0120ain": 18212, "\u0120Ecology": 35398, "\u0120mRNA": 47412, "????": 27282, "Enh": 47852, "fore": 13364, "\u0120abusers": 31292, "\u0120Buck": 11771, "\u0120StarCraft": 47453, "\u0120operates": 4497, "\u0120mushrooms": 25038, "\u0120Cornell": 15634, "\u0120electric": 3459, "\u0120Wide": 19001, "\u0120Freddy": 34776, "\u01201080": 21083, "\u0120reconnaissance": 34061, "\u0120famed": 14661, "\u0120Madison": 6370, "\u0120iTunes": 14734, "ocity": 36139, "odes": 19160, "\u0120razor": 26700, "\u0120uniforms": 16661, "\u0120barbecue": 18906, "\u0120Protestant": 33478, "\u0120dusk": 33917, "\u0120supremacists": 24688, "\u0120Sud": 12314, "Obj": 49062, "isition": 39353, "\u0120seminar": 21412, "politics": 28373, "\u0120illumination": 42619, "\u0120pilgrims": 24689, "\u0120disadvantages": 38940, "Sem": 37504, "Police": 9497, "\u0120facets": 33504, "eenth": 43169, "\u0120bad": 1099, "\u0120Olympus": 36322, "\u0120button": 6148, "\u0120asleep": 15028, "Tumblr": 49083, "Type": 40118, "\u0120Contra": 32319, "\u0120Mith": 38061, "\u0120catchy": 33200, "andel": 25849, "IG": 5969, "~~~~~~~~~~~~~~~~": 48936, "\u0120GREEN": 34396, "\u0120commissioner": 7236, "puter": 48428, "allo": 24061, "\u0120physics": 17759, "////////////////////////////////": 49216, "\u0120Lesbian": 43338, "months": 34606, "acles": 26915, "\u0120Apple": 1257, "\u0120sloppy": 26654, "aghetti": 44129, "around": 13837, "\u0120Physics": 31590, "serial": 46456, "\u0120sabotage": 26664, "\u0120commemor": 16293, "\u0120allergies": 26331, "\u0120extends": 14269, "\u0120Robot": 31024, "{\"": 49643, "Critics": 47312, "\u0120willful": 40960, "\u0120Diss": 36053, "\u0120Golden": 3274, "\u0120survived": 5601, "\u0120opio": 49462, "\u0120VO": 36584, "\u0120hail": 18742, "CRE": 45503, "\u0120Recorded": 42512, "\u0120gasp": 41681, "zbek": 48142, "\u0120reflex": 32229, "tumblr": 48263, "Authent": 48151, "Team": 20158, "\u0120Kuh": 29869, "WP": 28435, "\u0120automation": 11767, "rice": 15474, "Evidence": 46069, "\u0120Price": 3655, "CPU": 47378, "\u0120Vick": 18889, "\u0120Ol": 5387, "\u0120grievance": 32304, "\u0120Qi": 36676, "hetic": 18667, "itches": 30312, "\u0120Sri": 6604, "\u0120Kir": 11596, "\u0120Memor": 31641, "\u0120bosses": 14063, "\u0120payment": 3207, "\u0120Broadway": 7099, "\u0120rallies": 10881, "ultan": 41181, "\u0120fears": 4606, "\u0120bot": 14084, "\u0120bon": 13295, "aliation": 47017, "\u0120Sitting": 28060, "\u0120Biblical": 40802, "rices": 45940, "\u0120controversial": 4456, "urus": 37716, "\u0120seems": 1302, "\u0120Mam": 15627, "\u0120Austin": 4224, "ECK": 30438, "\u0120Within": 9842, "\u0120advertisers": 15857, "Party": 38210, "\u0120Permanent": 20132, "\u0120almost": 818, "\u0120Vand": 19060, "cru": 32023, "\u0120au": 8477, "\u0120Niagara": 18117, "032": 40935, "\u00c3": 3849, "naire": 45349, "addr": 49439, "\u0120Fan": 11232, "\u0120diamond": 11720, "\u0120Territ": 42243, "\u0120Ll": 12655, "\u0120hose": 27641, "\u0120gotten": 5335, "\u0120Illum": 36792, "\u0120neurons": 28449, "drawn": 31798, "\u0120workshop": 9780, "\u0120Irish": 3445, "Reason": 48147, "\u0120deception": 29244, "ivable": 29226, "\u0120dedicate": 27036, "\u0120sid": 16742, "\u0120outper": 9980, "\u0120excluding": 12556, ")(": 21704, "\u0120bookmark": 42022, "\u0120benevolent": 43186, "\u0120reductions": 14138, "benefit": 38010, "\u0120Rodrigo": 16630, "\u0120stunning": 5835, "\u0120regress": 44702, "igans": 40342, "select": 38450, "\u0120equipped": 8895, "\u0120Ring": 11533, "\u0120Hunters": 34926, "Customer": 44799, "\u0120striped": 29874, "\u00e3\u0125\u00bc\u00e3\u0125\u00b3": 49866, "\u0120broccoli": 34803, "\u0120clip": 7200, "\u00e2\u0122": 17, "294": 32004, "\u01202017": 193, "\u0120Detect": 18129, "\u0120ocean": 6444, "\u0120responders": 11333, "\u0120840": 41714, "ritis": 37830, "\u0120Californ": 19970, "\u0120partying": 27865, "\u0120pige": 41997, "\u0120Objects": 42640, "\u0120bruises": 27452, "elf": 24973, "Capital": 38632, "\u0120Go": 2381, "\u0120Unified": 19991, "anthrop": 36046, "\u0120servers": 13282, "355": 29794, "$": 1629, "\u0120preserve": 8415, "\u0120mourn": 15213, "ophen": 44738, "\u0120rabid": 39660, "\u0120denouncing": 32439, "\u0120younger": 3240, "\u0120Shield": 17056, "\u0120Souls": 38681, "Publisher": 47871, "\u0120UT": 14019, "\u0120Kahn": 30636, "\u0120World": 623, "\u0120subsystem": 44890, "\u00e2\u0122\u0137": 45725, "\u0120reboot": 18660, "\u0120Influence": 41284, "\u0120accidents": 9960, "\u0120law": 488, "\u0120Morty": 42497, "\u0120rename": 38453, "\u0120meager": 38460, "\u0120DD": 27932, "oir": 13878, "\u0120PAC": 17566, "\u0120Matth": 25184, "\u0120unlawfully": 30372, "\u0120DNS": 40098, "\u0120unb": 28363, "\u0120Hoy": 24984, "oteric": 47892, "inside": 36615, "raped": 40343, "\u0120Cameroon": 14781, "\u0120Tasmania": 29314, "\u0120unsurprisingly": 36200, "\u0120hasht": 32795, "\u0120Doct": 45142, "\u0120Grave": 38467, "\u0120Universal": 9973, "AD": 2606, "\u0120radicals": 35842, "ussy": 28102, "Man": 6407, "errilla": 46148, "\u0120ke": 7321, "etary": 33267, "\u0120chap": 38328, "\u0120Javier": 20550, "gon": 14601, "\u0120Trump": 140, "\u0120Cedar": 15875, "venue": 32497, "\u0120slur": 29118, "eno": 14511, "assic": 41139, "flags": 46760, "ifter": 33211, "\u0120speaking": 2686, "\u0120skipped": 22904, "Gear": 45298, "\u0120photograph": 10582, "\u0120fared": 24779, "\u0120Yus": 21333, "\u0120Ren": 6340, "\u0120pathogens": 35904, "\u0120hazard": 19895, "\u0120bios": 29607, "Stop": 22174, "arp": 11230, "\u0120dement": 44202, "\u0120Other": 1944, "\u0120Si": 11065, "\u0120electing": 31839, "\u0120Dip": 23919, "Flow": 41779, "\u0120Costume": 38124, "\u0120Eagle": 9587, "iths": 47029, "SIM": 37266, "\u0120knives": 21550, "\u0120knock": 7956, "\u0120Matte": 21129, "357": 30628, "Cause": 43326, "\u0120Potion": 48475, "Lord": 37565, "tr": 4328, "Priv": 47494, "\u0120Puzz": 48031, "\u0120misconduct": 6046, "ELY": 29313, "iaz": 22517, "\u0120auxiliary": 34590, "erving": 25373, "ophone": 25999, "buff": 43637, "\u0120server": 10228, "\u0120enroll": 16914, "\u0120STUD": 39833, "Ste": 21426, "\u0120teenagers": 10226, "\u0120merit": 13032, "\u0120rites": 38560, "\u0120facility": 2122, "\u0120polled": 13829, "\u0120Hansen": 14942, "WHAT": 44628, "amb": 3146, "Effects": 48730, "\u0120Diamond": 7128, "\u0120unsigned": 39023, "\u0120chased": 15378, "Path": 42119, "uding": 20932, "\u0120ASA": 36356, "rots": 41712, "\u0120Hernandez": 7816, "burst": 42342, "riot": 21171, "\u0120Riyadh": 14470, "ains": 5069, "leigh": 19343, "\u0120Yanuk": 36479, "\u0120refrigerator": 25572, "\u0120multi": 3228, "\u0120mov": 32924, "\u00e9\u0129": 47994, "\u0120stirring": 21881, "\u0120Lincoln": 5839, "\u0120Range": 12529, "\u0120parse": 43756, "etus": 43161, "\u0120Swordsman": 49610, "uo": 23613, "\u01201920": 18283, "\u0120gul": 42445, "irst": 17698, "\u0120Nag": 7729, "\u0120atten": 45497, "\u0120Pump": 29033, "azaki": 38357, "Higher": 44083, "\u0120hike": 5960, "\u0120Delicious": 40472, "\u0120contestant": 19872, "omal": 38868, "Dur": 38178, ",,,,": 49563, "\u0120emperor": 36179, "gged": 35546, "\u0120Brush": 33932, "\u0120Marketplace": 27878, "\u0120geo": 32816, "\u0120paths": 14561, "\u0120Mutual": 21248, "\u0120packaged": 20605, "\u0120\u00e2\u0122\u00a6": 1555, "RAM": 19496, "amber": 19383, "\u0120Ve": 10978, "\u0120papers": 6665, "qq": 31341, "\u0120Salvador": 14254, "ROR": 45055, "\u0120tutor": 38296, "ieth": 15036, "esta": 17838, "\u0120Consequently": 25613, "Nev": 35881, "\u0120Mol": 10347, "\u0120nationals": 12437, "\u0120GPL": 46854, "\u0120pitched": 8050, "ythm": 43821, "\u0120mortal": 35679, "erton": 14347, "!!!!!!!!": 47038, "\u0120perl": 49135, "String": 34222, "\u0120fireball": 41798, "\u0120noted": 1581, "\u0120great": 372, "\u0120improvement": 3855, "\u0120Carpenter": 17913, "itially": 49848, "oine": 21012, "\u0120Kitt": 26990, "\u0120straightforward": 15196, "Rest": 31921, "\u0120trucks": 5875, "\u0120Buk": 18607, "\u0120Recall": 35109, "\u0120Prem": 22769, "\u0120Registered": 32790, "\u0120mounting": 12033, "also": 19726, "\u0120obesity": 14057, "\u0120bluntly": 36389, "\u0120restructuring": 8183, "reens": 18656, "\u0120monetary": 5775, "\u01201975": 14873, "\u0120infring": 25827, "\u0120consists": 10726, "Plugin": 49577, "Gam": 44888, "\u0120experts": 2320, "\u0120Mafia": 37516, "\u0120psychologists": 33208, "\u0120lacking": 12622, "Reference": 45963, "\u0120Kai": 21744, "Volume": 39781, "\u0120resource": 5799, "\u0120dungeons": 46932, "\u0120volunteer": 5968, "\u01201862": 44695, "olesterol": 46268, "\u0120unle": 26921, "\u0120accomplish": 11829, "\u0120Ho": 5082, "\u0120bail": 4852, "ising": 3009, "\u0120debtor": 43757, "\u0120Babel": 46060, "\u0120correctness": 34726, "May": 10004, "\u0120Scholars": 31591, "eper": 30816, "\u0120Clear": 11381, "\u0120instit": 16114, "\u0120Casino": 14049, "028": 40709, "\u0120heads": 3885, "\u0120Strong": 8776, "\u0120betray": 32263, "rators": 25851, "\u0120Rash": 9516, "\u0120Feng": 34723, "\u0120tint": 32683, "\u0120Factory": 16810, "\u0120Funk": 28864, "\u0120inertia": 42978, "\u0120Asuka": 39480, "August": 20041, "youtu": 45066, "\u0120whistleblower": 27492, "\u0120Fine": 14321, "istan": 7566, "\u0120Portugal": 8062, "OA": 16024, "\u0120outlets": 6639, "\u0120chop": 27804, "\u0120merits": 20273, "\u0120realizes": 26558, "ifix": 48121, "Tank": 46192, "haus": 19493, "\u0120because": 142, "\u0120Erdogan": 8230, "\u0120quiz": 25060, "dollar": 11447, "\u0120lobbyist": 25238, "\u00e2\u0122\u0135\u00e2\u0122\u0135": 41657, "\u0120Heroes": 24082, "\u0120Herman": 14358, "\u0120Holt": 13155, "\u0120Brom": 14312, "\u0120disks": 42637, "footed": 26620, "\u0120Tillerson": 8760, "PD": 6153, "idays": 32904, "DeliveryDate": 50215, "Ry": 43031, "\u0120heard": 1317, "733": 38765, "reat": 12353, "Rew": 46176, "\u0120Hank": 22216, "gro": 15821, "otin": 39467, "\u0120possessed": 26927, "\u0120Ezekiel": 27474, "amed": 7486, "\u0120bombardment": 36449, "gey": 13817, "\u0120undesirable": 39028, "\u0120Tina": 15720, "\u0120modes": 19180, "\u0120unsett": 30933, "\u0120quote": 9740, "utherford": 48604, "AFTA": 39796, "glers": 43060, "\u0120negative": 2430, "elt": 6607, "\u0120abandoned": 6978, "\u0120Feld": 35083, "\u0120ha": 2489, "\u0120Tik": 37177, "\u0120FTA": 42668, "\u0120immigration": 2447, "\u0120lb": 19821, "\u0120barracks": 33217, "\u0120Moral": 42822, "\u0120diplomat": 12176, "for": 1990, "\u0120Fund": 2896, "????????": 36137, "\u0120frogs": 38072, "Tre": 33241, "\u0120discourse": 19771, "chair": 13599, "adan": 30637, "\u0120Mad": 4145, "nian": 29366, "\u0120()": 36418, "ABLE": 13732, "initialized": 49722, "score": 31673, "\u0120midst": 11201, "\u0120Ajax": 24857, "\u0120disruptive": 17561, "\u0120doc": 22053, "\u0120notable": 8091, "\u0120revise": 19721, "\u0120weights": 23341, "\u0120soak": 27685, "\u0120Hat": 10972, "\u0120hideous": 42396, "\u0120almond": 32473, "urbed": 35250, "\u0120rendition": 25202, "inctions": 46350, "taker": 15232, "armac": 28281, "SK": 17342, "\u0120manga": 38996, "\u0120administering": 33742, "\u0120Motorola": 23034, "travel": 28881, "\u0120Chandler": 16027, "\u0120Definition": 38764, "\u0120gravity": 17244, "names": 37815, "\u0120Avenue": 2666, "\u0120join": 1962, "Eva": 46672, "\u0120Stre": 12693, "\u0120html": 48445, "agon": 11408, "\u0120Lion": 14399, "\u0120clin": 13482, "\u0120Tiny": 28996, "\u0120fif": 45783, "\u0120thefts": 25154, "\u0120Bannon": 10309, "\u0120fiber": 11810, "\u0120Quit": 41990, "steel": 36606, "\u0120roughly": 3667, "venge": 31982, "\u0120thence": 44130, "\u0120lyric": 28865, "563": 39032, "Arab": 33054, "rane": 29026, "agh": 7669, "\u0120Singapore": 2920, "\u0120good": 205, "isy": 26351, "resident": 27516, "\u0120Chou": 31530, "\u0120finest": 14535, "\u0120Jacksonville": 9811, "\u0120Titanium": 42533, "\u00e8\u0122\u0127": 49337, "wd": 41564, "\u0120spoilers": 17669, "\u0120authorization": 19234, "subject": 40747, "redients": 48205, "\u0120indistinguishable": 43599, "\u0120managers": 4389, "\u0120mindful": 20807, "\u0120frightened": 26851, "\u0120Shell": 10700, "pler": 30779, "\u0120division": 2757, "\u0120ang": 5667, "\u01208000": 38433, "route": 37745, "\u0120reiter": 26209, "\u0120Guantanamo": 30663, "\u0120Loaded": 45759, "\u0120strategist": 8154, "\u0120fil": 14242, "SQL": 46608, "\u0120un": 542, "grey": 43268, "\u0120telev": 20928, "\u0120blaster": 46756, "\u0120Liver": 29711, "\u0120Rodham": 46581, "=[": 49310, "\u0120Just": 1801, "\u0120Forsaken": 47565, "\u0120Nets": 16421, "ievers": 37290, "Names": 47995, "UFC": 33118, "\u0120dissolved": 25385, "\u0120soda": 18833, "\u0120inval": 48544, "\u0120defic": 48624, "RON": 37043, "\u0120289": 39613, "\u0120hunting": 8217, "\u0120tokens": 22121, "\u0120&&": 48200, "\u0120later": 423, "\u0120Repl": 26103, "\u0120Tale": 21802, "Ball": 32983, "ophile": 35870, "\u0120boxer": 19921, "Plex": 46169, "\u0120Lys": 39242, "\u0120screened": 19756, "\u0120Needs": 28620, "\u0120there": 89, "awatts": 23643, "\u0120trap": 14653, "\u0120PsyNet": 50071, "\u0120Query": 44489, "\u00c3\u0125\u00c3\u0124\u00c3\u0125\u00c3\u0124\u00c3\u0125\u00c3\u0124\u00c3\u0125\u00c3\u0124\u00c3\u0125\u00c3\u0124\u00c3\u0125\u00c3\u0124\u00c3\u0125\u00c3\u0124\u00c3\u0125\u00c3\u0124\u00c3\u0125\u00c3\u0124\u00c3\u0125\u00c3\u0124\u00c3\u0125\u00c3\u0124\u00c3\u0125\u00c3\u0124\u00c3\u0125\u00c3\u0124\u00c3\u0125\u00c3\u0124\u00c3\u0125\u00c3\u0124\u00c3\u0125\u00c3\u0124": 50087, "\u0120Concern": 17192, "fleet": 42952, "\u0120shaky": 22032, "\u0120Hitchcock": 31713, "\u0120Line": 5562, "\u0120Fry": 17713, "quite": 24638, "\u0120hypothetical": 29927, "\u0120endanger": 20430, "ories": 9023, "\u0120bridges": 11879, "rex": 19633, "\u0120Sphere": 45644, "itute": 26261, "\u0120Exactly": 31804, "\u0120becoming": 1959, "Engineers": 47890, "\u0120Foo": 36155, "\u0120ray": 33803, "\u0120sir": 21958, "\u0120Ud": 23917, "\u0120smartest": 35895, "\u0120shown": 2343, "\u0120Must": 8495, "\u0120Legacy": 18089, "\u0120scrut": 48504, "\u0120Diabetes": 25495, "\u0120\u00c2": 5505, "\u0120stub": 35672, "\u0120Sonny": 23202, "\u0120generates": 17382, "Modern": 39631, "\u0120Samson": 28434, "\u0120ballot": 5250, "upload": 47571, "\u0120der": 1935, "ergus": 39610, "cair": 46811, "\u0120Man": 1554, "ounge": 46600, "\u0120benchmark": 5437, "\u0120Street": 852, "\u0120Omaha": 19359, "82": 6551, "\u0120corps": 19006, "\u0120growing": 1197, "\u0120groove": 27071, "vre": 29416, "\u0120service": 544, "\u0120Considering": 17861, "\u0120IBM": 11510, "\u0120sniper": 31985, "\u0120Enjoy": 16013, "\u0120recommended": 5131, "\u0120Cons": 9051, "\u0120attribution": 42066, "PS": 3888, "\u0120Ted": 8115, "\u0120desper": 46528, "\u0120squad": 2837, "\u0120prolific": 17038, "\u0120whenever": 8378, "\u0120channels": 6237, "ollower": 47808, "arted": 26587, "Device": 47580, "\u0120exhilar": 32749, "\u0120identity": 3599, "ll": 890, "iners": 14231, "Total": 37591, "outube": 47729, "\u0120baseball": 3403, "\u0120hoped": 5207, "\u0120puls": 33463, "\u0120Safe": 13793, "control": 17665, "\u0120diseases": 6357, "\u0120dri": 13911, "wikipedia": 47886, "\"": 113, "\u0120ol": 22796, "\u0120heir": 24482, "\u0120flat": 3269, "\u0120BRE": 13530, "\u0120KILL": 41222, "antha": 43284, "\u0120Jacques": 24340, "email": 10555, "Irish": 38100, "\u0120.\"": 39058, "\u0120maintenance": 4861, "\u0120Penguin": 35275, "raining": 32155, "jon": 23368, "\u0120dil": 14632, "Lt": 45105, "imbabwe": 39329, "\u0120Chronicle": 14486, "\u0120boolean": 49378, "panic": 46067, "\u0120Daytona": 19627, "\u0120negotiated": 12518, "\u0120define": 9914, "\u0120screw": 21927, "\u0120pledges": 19629, "ravity": 42701, "\u0120Naruto": 47175, "\u0120magic": 8375, "ft": 2543, "msg": 48593, "\u0120stove": 25901, "\u0120processes": 5588, "\u0120Tribal": 32898, "\u0120disagrees": 30399, "\u0120volcanic": 23183, "oliath": 39283, "types": 41817, "\u01205": 195, "\u0120Mane": 21806, "admin": 46119, "\u0120alignment": 22432, "\u0120PSP": 36281, "ut": 1182, "\u0120Sinclair": 19189, "\u0120Philippe": 16478, "\u0120Messi": 9711, "Shadow": 45418, "\u0120agrees": 11687, "\u0120ori": 36468, "\u0120MIDI": 47282, "\u0120invade": 34425, "\u0120Giving": 19506, "\u0120\u00e2\u012a": 47444, "\u0120bishop": 23766, "\u0120everyday": 7476, "\u0120Dean": 6450, "\u0120explosives": 16174, "automatic": 27106, "IELD": 38200, "Mem": 35038, "\u0120Nirvana": 42058, "asionally": 47030, "\u0120Scenes": 40267, "\u0120pals": 20633, "\u0120accompanying": 14539, "\u0120vanity": 36827, "\u0120prosperity": 12536, "inates": 34244, "\u0120proportional": 35563, "\u0120undertaken": 15050, "\u0120hob": 26375, "eller": 15098, "\u0120perimeter": 17842, "\u0120burial": 17353, "\u0120onwards": 26485, "\u0120Burgess": 23442, "\u00c3\u00a4": 1561, "\u0120volley": 22882, "\u0120whale": 17840, "\u0120periods": 5788, "istic": 5580, "ongyang": 46125, "\u0120HER": 29892, "\u0120benchmarks": 22485, "443": 35741, "\u0120anus": 45938, "\u0120negotiation": 14854, "\u0120Cable": 14433, "\u0120Published": 13002, "\u0120limitation": 22830, "\u0120Karachi": 15043, "\u0120Alibaba": 13672, "\u0120Northeast": 9564, "\u0120advertis": 39634, "\u0120fabulous": 17545, "\u0120extradition": 16798, "\u0120Rwanda": 16684, "gradient": 49433, "\u0120Psy": 41391, "VERSION": 48195, "\u0120Wel": 15565, "\u0120Begins": 43050, "respond": 36797, "nette": 25582, "vim": 40991, "\u0120Pose": 25882, "\u0120miner": 18678, "ector": 26997, "\u0120Rachel": 7423, "\u0120Exile": 46807, "\u0120class": 1380, "\u0120one": 65, "\u0120vigilance": 35116, "\u0120Angeles": 1422, "\u0120London": 928, "\u0120Made": 10630, "\u0120CLS": 45026, "\u0120excluded": 15298, "\u0120stunts": 31158, "\u0120Ron": 5529, "\u0120resilient": 15194, "\u0120poets": 33297, "\u0120lineback": 47690, "\u0120spa": 18179, "\u0120alright": 30103, "hest": 20921, "istence": 41177, "lla": 5104, "\u0120trio": 8566, "idad": 8843, "\u0120Dive": 37954, "olina": 27343, "352": 33674, "\u0120relies": 12438, "\u0120onstage": 20309, "\u0120depth": 5581, "\u0120Cout": 13169, "\u0120contentious": 14883, "reaching": 23504, "\u0120limitless": 39284, "\u0120abundance": 18225, "\u0120func": 26437, "Die": 28535, "\u0120Hath": 20880, "Id": 28081, "agos": 31058, "\u0120sediment": 31031, "\u0120doi": 36815, "ollo": 38520, "\u0120exclus": 25948, "\u0120brunch": 25003, "\u0120Down": 5818, "jpg": 10474, "\u0120unofficial": 19707, "raltar": 48087, "\u0120Sunset": 23263, "\u0120speakers": 6864, "missible": 36507, "\u0120Kislyak": 31027, "\u00e2\u0122\u0136": 578, "\u0120modesty": 39706, "\u0120ground": 1255, "\u0120wedge": 27288, "benef": 41908, "\u0120ever": 655, "\u0120upright": 25922, "\u0120Policies": 39474, "\u0120agendas": 30490, "\u0120var": 15747, "\u0120Ubisoft": 36263, "\u0120periodic": 27185, "\u0120attempted": 3751, "olk": 14024, "date": 10672, "\u0120broken": 3187, "atives": 11649, "iders": 8936, "\u0120mechanical": 12418, "EMENT": 20944, "\u0120AD": 4516, "ostics": 21611, "Ide": 42233, "2014": 16310, "\u0120Dakota": 6223, "aving": 13286, "JD": 26697, "During": 14229, "\u0120compares": 12616, "incent": 34457, "\u0120diplom": 31038, "\u0120stood": 3359, "\u0120genre": 11581, "\u0120erupt": 24850, "\u0120Cat": 7641, "hab": 13899, "Why": 7608, "\u0120AC": 7224, "\u0120Entity": 46718, "\u0120educators": 15969, "financial": 24915, "\u0120Jungle": 29553, "\u0120gard": 23118, "\u0120tigers": 36054, "\u0120flower": 14214, "\u0120nostalg": 47540, "icum": 35753, "\u0120caveat": 31929, "\u0120Theater": 10112, "\u0120Stra": 13893, "\u0120edge": 3543, "\u0120cancellation": 16064, "\u0120Everton": 9692, "\u0120Rain": 8699, "token": 46657, "\u0120Molly": 17154, "\u0120charg": 34143, "\u0120waive": 27673, "\u0120exercised": 25316, "\u0120MOD": 35179, "\u0120fed": 9789, "\u0120vodka": 26857, "\u0120reaches": 11541, "steps": 27091, "\u0120planner": 23720, "\u0120tactical": 15714, "\u0120349": 41091, "\u0120brokerage": 9196, "=-": 48771, "\u0120Dust": 25953, "\u0120undert": 26438, "\u0120Technician": 42951, "ours": 5634, "\u0120Liv": 17057, "\u0120Ob": 5816, "\u0120Shal": 25400, "atern": 36359, "imo": 11332, "inson": 9554, "\u0120philos": 49303, "\u0120egalitarian": 42890, "\u0120bun": 15713, "\u0120polished": 23520, "Previous": 44716, "Depth": 45566, "iasm": 43586, "\u0120Colony": 27904, "\u0120Jacqu": 17183, "\u0120guarantees": 12360, "\u0120lemon": 14099, "\u0120Winc": 44739, "itant": 41448, "\u0120ABV": 43771, "tri": 21237, "cause": 27037, "\u0120demanding": 5783, "\u0120Yankees": 6742, "ishment": 16812, "archy": 37208, "\u0120psycho": 37338, "\u0120Lopez": 7322, "163": 29425, "\u0120Weston": 22727, "\u0120Cannabis": 20334, "419": 37383, "\u0120circumst": 42755, "ooters": 22923, "\u0120Comfort": 30202, "\u0120disorder": 8364, "\u0120warmth": 20310, "\u0120depleted": 26391, "lator": 44006, "\u0120Nort": 17614, "\u0120tops": 13657, "\u0120Ministry": 2803, "tx": 43820, "Icon": 45686, "\u0120determin": 26948, "record": 14760, "Integ": 44798, "anga": 9615, "\u0120bool": 49460, "has": 7333, "518": 33213, "\u0120Fiber": 28982, "\u0120libel": 36654, "\u0120erotic": 38626, "\u0120miraculous": 35821, "Twe": 45659, "\u0120kicking": 10720, "\u0120segregated": 31522, "\u0120Bened": 40610, "\u0120tele": 8327, "\u0120agent": 2936, "\u0120soar": 27283, "\u0120dramas": 29430, "050": 25423, "\u0120Barry": 7600, "\u0120frantic": 27396, "\u0120Green": 1628, "\u0120linkage": 42117, "\u0120loopholes": 29307, "AFP": 11528, "599": 33626, "omial": 48866, "\u0120Theme": 39000, "\u0120req": 48829, "pipe": 30131, "cult": 38609, "\u0120spouses": 23161, "\u0120sect": 26299, "\u0120COUNTY": 12629, "Mp": 46279, "192": 29362, "\u0120spirituality": 37093, "Yes": 9904, "\u0120assaults": 15624, "ften": 34581, "\u0120USAF": 45957, "Le": 10350, "\u0120combines": 15678, "\u0120Vortex": 45654, "\u0120hungry": 11130, "published": 34167, "\u0120Hull": 13077, "itous": 34669, "\u0120fatal": 6484, "\u0120apt": 23744, "ossibly": 39890, "prisingly": 47607, "\u0120bes": 9988, "\u0120Ant": 3702, "ractive": 33041, "\u0120proc": 17987, "lag": 23546, "ohm": 43275, "\u0120desc": 23174, "\u0120gram": 25187, "\",": 1297, "\u0120Joker": 36658, "\u0120lust": 30864, "\u0120CLSID": 50001, "Price": 36677, "\u0120Doomsday": 45867, "\u0120clich\u00c3\u00a9": 35341, "\u0120intermitt": 41870, "\u0120vanish": 40078, "\u0120critical": 2008, "\u0120Currently": 7519, "\u0120traged": 47189, "incible": 46095, "urga": 31493, "\u0120alike": 9829, "\u0120dreadful": 31715, "\u0120seq": 48652, "\u0120champagne": 20422, "\u0120suggestion": 10791, "804": 37413, "Ch": 4771, "\u0120Calif": 6863, "\u0120instances": 10960, "\u0120haul": 13068, "qua": 23869, "\u0120Wasteland": 48303, "\u0120Studio": 11523, "\u0120Clemson": 10167, "\u0120routines": 24888, "\u0120Vij": 13444, "oor": 4623, "Plan": 35351, "\u0120Hayes": 12299, "American": 4310, "Would": 29042, "\u0120foolish": 22789, "\u0120justify": 11071, "\u0120reluct": 49777, "scill": 46003, "\u0120..": 29942, "\u0120Scotch": 37122, "\u0120equitable": 27083, "\u0120Dane": 21767, "Poly": 44910, "\u0120sweat": 14711, "\u0120Educational": 24720, "\u0120hectares": 16618, "alam": 23590, "\u0120sailing": 17664, "\u0120regarding": 2624, "\u0120Lightning": 14090, "ventory": 49016, "\u0120Lust": 39464, "powered": 10711, "_____": 27203, "\u0120supervision": 13702, "OB": 7912, "\u0120pseudonym": 41093, "\u0120Brew": 18020, "\u0120Herbert": 16532, "\u0120PLAY": 18453, "\u0120reusable": 31460, "\u0120matte": 34678, "\u0120chess": 25109, "\u0120Prevention": 10693, "\u0120coral": 23491, "WINDOWS": 49759, "ude": 6343, "\u0120revenge": 13543, "\u0120Ratio": 20475, "ENSE": 39951, "\u0120concess": 45315, "\u0120Feed": 17703, "\u0120cheaper": 7246, "\u0120Curry": 8320, "psc": 46651, "\u0120sources": 1715, "mom": 27363, "\u0120Kardash": 24960, "Equ": 28568, "\u0120Bridge": 4679, "\u0120publishes": 27134, "cham": 45346, "\u0120Blazing": 47361, "\u0120429": 40567, "\u0120hitter": 14005, "cover": 20401, "\u0120soothing": 32625, "\u0120tiger": 23921, "\u0120perv": 42266, "\u0120import": 6595, "\u0120criticism": 3633, "\u0120Here": 1398, "ADD": 37705, "\u0120guards": 8528, "Truth": 41286, "\u0120Logo": 38732, "ILLE": 35025, "\u0120System": 5149, "\u0120entit": 34246, "ually": 13851, "\u0120DDR": 37159, "PH": 7561, "\u0120Signed": 33994, "\u0120perpetually": 39586, "\u0120manifested": 38541, "let": 2716, "\u0120ginger": 19863, "\u0120ling": 24433, "handled": 42536, "DF": 9380, "nyder": 45901, "\u012085": 5663, "\u0120laps": 10355, "Wow": 23692, "cycle": 23060, "\u0120Maced": 34922, "\u0120Mongo": 44343, "\u0120Snyder": 13036, "\u0120Tide": 16428, "\u0120HA": 27842, "\u0120trumpet": 32909, "\u0120Divine": 35970, "\u0120Patriarch": 39446, "\u0120QU": 16944, "\u0120salvage": 22742, "\u0120incapable": 30256, "\u0120md": 46627, "\u0120scen": 42213, "\u0120producer": 3436, "\u0120enjoyed": 3776, "\u0120preventing": 9107, "\u0120HO": 31528, "029": 41168, "LEASE": 48809, "\u0120straight": 1359, "\u0120Masquerade": 46967, "\u0120arguing": 7594, "\u0120casual": 9881, "421": 38785, "\u0120tavern": 40128, "pat": 11632, "\u0120patient": 3186, "\u0120FIGHT": 41905, "\u0120Area": 4121, "\u0120tipped": 13402, "\u0120pian": 23674, "\u0120Lif": 19556, "emetery": 49299, "\u0120Moving": 15008, "\u0120compounded": 24094, "\u0120carp": 25520, "\u0120masked": 24397, "\u0120kills": 10469, "ogenesis": 43333, "\u0120safely": 7385, "ause": 17498, "\u0120frequ": 36555, "QUI": 48055, "\u0120Olymp": 14993, "gres": 43785, "loc": 26516, "\u0120labeling": 27963, "\u0120Clan": 39849, "\u0120jazz": 11057, "\u0120spicy": 24042, "Movie": 42963, "ido": 6005, "\u0120Cobra": 39774, "\u0120tweeting": 15096, "\u0120potent": 16139, "\u0120folklore": 39385, "\u0120charact": 49650, "Bar": 14507, "mony": 27583, "pillar": 24003, "\u0120Idaho": 10604, "\u0120Steam": 18120, "ffer": 23926, "\u0120Jason": 3262, "\u0120borough": 14892, "\u0120Kavanaugh": 5164, "\u0120sheltered": 34592, "\u0120Blaze": 35836, "\u0120heavily": 4008, "\u0120Simulator": 45765, "\u0120Portsmouth": 19611, "MORE": 38543, "\u0120recognizing": 16257, "\u0120ambiguity": 35566, "\u0120moistur": 29030, "\u0120publications": 16043, "ionic": 37115, "\u0120subordinates": 40806, "ility": 13005, "\u0120battling": 8073, "Bul": 40028, "\u00ce\u00bf": 46122, "utan": 22165, "mercial": 49140, "\u00e3\u0124\u00bd": 49808, "\u0120discussion": 3221, "\u0120ILCS": 49821, "complete": 27527, "\u0120Sample": 16269, "\u0120office": 558, "\u0120scientifically": 36388, "\u0120Tibetan": 34810, "\u00ef": 43251, "\u0120symbolic": 16868, "\u0120Motorsport": 33878, "bered": 30546, "\u0120efficiently": 14146, "\u01201924": 35211, "\u0120Reson": 44981, "buquerque": 48775, "meal": 32218, "\u0120bron": 28438, "885": 37634, "--": 5579, "\u0120autom": 10948, "\u0120Acquisition": 28912, "\u0120HB": 22783, "\u0120350": 10088, "\u012076": 5553, "\u0120spell": 8921, "\u0120Radiation": 43209, "\u0120Presbyterian": 24156, "\u0120assisting": 13390, "sun": 21381, "rero": 31409, "ifier": 24072, "\u0120Chandra": 29606, "\u0120Kro": 14226, "AIN": 33178, "\u0120abras": 37722, "\u0120welding": 33707, "\u0120ruth": 39215, "ribution": 35719, "asures": 42832, "\u01201938": 30775, "%;": 31558, "\u0120Buffalo": 5958, "\u0120Cary": 25946, "\u0120Cros": 25858, "\u0120popul": 36925, "\u0120consensus": 2899, "\u0120thunder": 4775, "romptu": 30467, "\u0120at": 23, "\u0120pleas": 19518, "\u0120downtime": 32122, "\u0120Orange": 5726, "\u0120scarf": 29055, "\u0120Related": 3283, "\u0120retrieved": 29164, "87": 5677, "\u0120judicial": 8252, "\u0120Pearson": 16116, "Above": 42599, "\u0120bubble": 12172, "\u0120Seek": 37528, "\u0120io": 46155, "\u0120hurdle": 18263, "Latest": 45409, "\u0120phylogen": 48372, "\u0120incl": 25906, "\u0120arenas": 33322, "Activ": 43034, "\u0120Kashmir": 7525, "aretz": 40781, "conservancy": 49273, "\u0120pedest": 38238, "\u0120toward": 1706, "\u0120urge": 8745, "\u0120increasing": 2284, "\u0120SEE": 14704, "\u0120FIX": 42344, "View": 22130, "delay": 46696, "\u0120blond": 33072, "option": 27657, "stories": 43176, "\u01202011": 1466, "\u0120emph": 29398, "\u0120bipartisan": 10094, "\u0120sheets": 12208, "\u0120deploy": 11386, "\u0120unse": 17851, "\u0120257": 33921, "Category": 46308, "uint": 47157, "urity": 25075, "003": 33490, "\u0120Cur": 6781, "sec": 8584, "\u0120adjusts": 37371, "\u0120subpoen": 28130, "------": 44516, "isites": 48239, "\u0120Frazier": 19080, "\u0120Bene": 32044, "iances": 29818, "tall": 27924, "\u0120monop": 46547, "520": 31271, "Data": 30383, "mile": 7800, "\u0120Nights": 31131, "obiles": 32864, "\u0120Prest": 27841, "opsis": 42096, "\u0120burn": 7403, "\u0120Sul": 17074, "\u0120tumor": 16570, "\u0120involve": 6877, "\u0120celebrity": 6794, "\u0120Elect": 20513, "Future": 37577, "\u0120rescind": 21961, "\u0120Tun": 21215, "\u0120fruitful": 31770, "\u0120needs": 782, "\u0120Kee": 19677, "\u0120conflicts": 9549, "\u0120Annex": 40396, "Like": 13721, "NI": 17640, "\u0120Inspection": 32549, "\u0120Lost": 13932, "\u0120Brown": 1547, "Chain": 32267, "\u0120Trooper": 28896, "critical": 25398, "\u0120Scully": 36660, "\u0120Goth": 43447, "inently": 43287, "\u0120martyr": 26301, "\u0120homeland": 16323, "\u0120linking": 14135, "\u0120bakery": 22428, "\u0120Japanese": 2898, "Limit": 47593, "\u0120WI": 24383, "\u0120Bender": 36493, "\u0120able": 441, "HAM": 20241, "rugged": 31756, "\u0120352": 39350, "ENS": 12743, "\u012d": 13859, "\u0120Dys": 41763, "1974": 44880, "\u0120698": 45417, "Net": 15721, "\u0120travers": 34038, "\u0120Anxiety": 42027, "\u0120Mayhem": 44621, "ousel": 34484, "\u0120mills": 19917, "ulas": 38215, "\u0120constitutional": 6100, "\u0120skelet": 49498, "uv": 13996, "\u0120Dian": 41169, "\u0120remove": 3438, "\u0120awkward": 11789, "\u0120digits": 15769, "\u0120sidew": 46605, "\u0120MLS": 13989, "\u0120Twilight": 35873, "\u0120Md": 20520, "\u0120recordings": 15308, "\u0120commonplace": 30208, "\u0120deform": 42011, "innon": 22863, "\u0120died": 962, "Ven": 39043, "avan": 10937, "\u0120shootout": 13818, "\u0120elicit": 39581, "wright": 13642, "\u0120turbo": 21124, "Anna": 35242, "\u0120plagued": 16145, "\u0120Eld": 18864, "\u0120cook": 7142, "\u0120habitual": 38946, "\u0120Pipe": 35386, "Nor": 29723, "\u0120WWE": 5233, "umph": 39988, "retch": 39717, "\u0120categor": 18072, "\u0120girls": 1972, "\u0120otherwise": 3680, "\u0120CE": 16327, "\u0120trooper": 22702, "\u0120Racial": 41363, "\u0120PRESIDENT": 33341, "\u0120Cinnamon": 43351, "Place": 41863, "border": 16720, "\u0120Highly": 37183, "\u0120flights": 4871, "\u0120Entered": 48040, "\u0120rabb": 40697, "1975": 43868, "G": 534, "\u0120seasons": 2516, "\u0120Blades": 37160, "asaki": 25280, "\u0120tailor": 26090, "OH": 11979, "lua": 47132, "\u00c3\u012f": 45115, "\u0120removing": 8201, "\u0120Family": 3664, "\u0120hill": 9910, "Touch": 40121, "\u0120bolt": 29211, "\u0120breasts": 22712, ".),": 12345, "\u0120Syn": 16241, "\u0120Belichick": 17131, "\u0120audit": 8491, "\u0120shadow": 9099, "\u0120Atmosp": 45923, "ERAL": 39243, "\u0120Assignment": 46091, "\u0120Hour": 16928, "\u0120whit": 21247, "\u0120material": 1468, "\u0120Lindsay": 13853, "\u0120Nas": 4417, "\u00e3\u0123\u00af": 48549, "\u0120Zap": 31308, "\u0120decoding": 46133, "\u0120grandchildren": 9165, "ectomy": 36291, "Performance": 44002, "\u0120pup": 30566, "ateg": 27586, "\u0120coc": 29472, "\u0120Capt": 13007, "\u0120jaw": 15345, "\u0120Floor": 21607, "\u0120CAT": 32295, "\u0120widely": 3924, ">.": 48691, "\u0120Blossom": 37430, "\u0120hon": 11006, "uggest": 49266, "\u0120Municip": 26169, "\u0120rebirth": 39652, "Studies": 46000, "\u0120majorities": 33431, "\u0120hect": 35377, "\u0120Mistress": 46943, "\u0120gelatin": 44496, "\u0120ultimately": 3284, "auder": 44533, "cule": 38884, "\u0120lipid": 44278, "\u0120Moonlight": 34195, "\u0120Rays": 15703, "\u0120Minister": 692, "\u0120tir": 28005, "\u0120profit": 1963, "ggies": 44279, "\u0120TR": 5758, "\u0120anarchist": 44771, "\u00e3\u0124\u00b0": 49516, "\u0120Cth": 49678, "hemy": 47065, "\u0120Barnett": 22795, "ukemia": 44336, "\u0120strategically": 19055, "icked": 14851, "\u0120as": 25, "farm": 19779, "\u0120springs": 28358, "rican": 45215, "\u0120Pole": 24710, "\u0120rescuing": 32484, "\u0120Sant": 8550, "\u0120Sixth": 24405, "correct": 36064, "\u0120baby": 1928, "\u0120migrate": 29682, "\u0120righteous": 37909, "ran": 3917, "\u0128": 27819, "\u0120Low": 6207, "\u0120interfere": 15365, "\u0120nursing": 8701, "brush": 30241, "\u0120skeletal": 39351, "definition": 38835, "\u0120harb": 32435, "||": 49085, "cats": 19295, "\u0120820": 40260, ".,\"": 30697, "mission": 12478, "\u0120realization": 24179, "\u0120Election": 7713, "\u0120ashes": 24936, "AAAA": 45612, "\u0120guild": 40901, "\u0120Fib": 28174, "\u0120MPEG": 47776, "\u0120historically": 9644, "\u0120Cyrus": 20055, "\u0120penetrate": 30373, "\u0120Osiris": 46240, "letal": 43669, "\u0120amidst": 24018, "\u0120servic": 18542, "Det": 43170, "\u0120finishes": 11630, "\u0120entangled": 37029, "\u0120metro": 12716, "\u0120discern": 27484, "\u0120Grounds": 36268, "roups": 46898, "arya": 23588, "\u0120Monteneg": 29999, "facebook": 17635, "Mart": 13012, "\u0120Killing": 31656, "lyn": 7436, "\u0120labor": 4178, "aked": 8435, "rik": 8836, "itored": 45543, "\u0120smell": 11362, "\u0120flavour": 24253, "\u0120Cunning": 47866, "\u0120lawsuits": 8986, "\u0120emphasizes": 27995, "\u0120unreasonable": 24941, "elope": 26889, "\u0120heavyweight": 12835, "\u0120commenters": 40471, "\u0120takeaway": 23028, "\u0120domestic": 1897, "BRE": 37589, "\u0120vertex": 49102, "\u0120stereotype": 33006, "\u0120roommate": 25537, "fl": 4825, "Vs": 13436, "------------------------": 46580, "351": 35340, "pas": 28466, "\u0120degree": 3093, "Constructed": 49671, "\u0120Biol": 47201, "\u0120thirty": 16984, "\u0120Buddha": 37714, "paper": 33331, "\u0120creatively": 34208, "406": 35629, "\u0120McInt": 18855, "\u0120always": 460, "Blood": 36746, "ottage": 26167, "ull": 5023, "348": 27765, "ISION": 36296, "\u0120Office": 1387, "\u0120gateway": 23247, "\u0120Detail": 42646, "\u0120landslide": 21486, "\u0120feats": 37864, "\u0120Destroy": 43961, "\u0120delusional": 40160, "\u0120suppliers": 7593, "\u0120fitted": 15898, "igslist": 48535, "\u0120Din": 15757, "\u0120apple": 15162, "\u0120German": 1859, "\u0120106": 13442, "\u0120nuts": 15092, "\u0120PUR": 36759, "\u0120Requ": 30978, "\u0120intrigue": 30368, "\u0120neural": 26739, "\u0120substantive": 24821, "Returns": 48826, "hak": 28832, "\u0120Consortium": 31693, "\u0120swirling": 27065, "\u0120Senators": 10421, "\u0120viewpoint": 31140, "\u00e5\u0127": 45895, "Earn": 32478, "\u0120Rend": 29110, "\u0120mono": 42125, "\u0120banking": 3454, "Michael": 14009, "EMBER": 26653, "\u0120DB": 18496, "izer": 6315, "\u0120Next": 4130, "\u0120ounces": 14509, "\u0120Ukip": 38532, "\u0120fooled": 31952, "emade": 43598, "\u0120submissions": 18219, "\u0120parental": 20536, "\u0120relay": 12937, "Neal": 28138, "Sarah": 33671, "\u0120imb": 30657, "\u0120Seems": 36420, "\u0120FedEx": 17181, "cium": 43526, "\u0120clinics": 12538, "oters": 37921, "\u0120Hear": 16321, "acca": 34854, "\u0120Both": 1868, "\u0120Albany": 12874, "\u0120Pumpkin": 33923, "ors": 994, "\u0120---------": 45793, "\u0120bicycles": 27208, "\u0120Jur": 16816, "\u0120Glacier": 34783, "target": 23976, "\u0120constant": 5891, "\u0120leftover": 31784, "groupon": 49730, "\u0120flatt": 29857, "\u0120Ampl": 37522, "IO": 6454, "\u0120Zamb": 14400, "hetti": 44215, "\u0120Vor": 22515, "\u0120Thames": 23131, "side": 3730, "scribe": 36037, "Offic": 43188, "\u0120muster": 27665, "rote": 26125, "\u0120bunk": 28691, "\u0120Overse": 26326, "aird": 45057, "\u0120im": 4356, "\u0120effect": 1683, "\u0120Parameters": 47930, "\u0120Spy": 26982, "\u0120mL": 38762, "eat": 21046, "\u0120endot": 46267, "\u0120semester": 14412, "ties": 23664, "\u0120Pension": 20740, "540": 31394, "\u0120instr": 49152, "\u0120Teams": 16280, "elaide": 44990, "\u0120Mercedes": 7016, "anwhile": 49241, "afi": 16834, "\u0120perman": 41367, "\u0120between": 227, "Network": 40283, "\u0120lifes": 30905, "\u0120Integ": 29257, "\u0120Gren": 13519, "\u0120crab": 23320, "\u0120Norn": 48463, "\u0120Kh": 2218, "apolis": 20048, "\u0120Compos": 35742, "\u0120Depend": 43290, "\u0120others": 643, "\u0120you": 47, "\u0120acquaint": 47577, "peg": 41191, "\u0120Bohem": 35118, "secure": 34153, "training": 32530, "\u0120Yen": 30377, "psons": 47267, "yne": 20706, "owitz": 19238, ".''": 13864, "\u0120brink": 16686, "\u0120empowered": 19260, "\u0120whistlebl": 46454, "\u0120wife": 1141, "episode": 33319, "bolt": 39560, "\u0120=================================================================": 44793, "\u0120rigs": 19880, "\u0120Capacity": 26422, "\u0120troubling": 15554, "\u0120collectively": 14332, "\u0120Rabbit": 27960, "\u0120participating": 6051, "ios": 4544, "\u0120reinforcement": 37700, "omes": 9898, "\u0120Scientific": 17141, "\u0120Standard": 5787, "\u0120Kra": 16379, "\u0120supplying": 18866, "194": 30548, "\u0120true": 1528, "\u0120230": 16242, "\u00ba": 3070, "805": 34249, "\u0120homosexual": 34312, "\u0120disrespect": 19870, "\u0120help": 244, "\u0120tattoo": 12904, "wer": 14682, "\u0120purchases": 5935, "\u01202004": 4482, "\u00e8\u0125": 48620, "\u0120keywords": 32712, "\u0120buffalo": 37437, "\u0120Investigators": 7847, "\u0120watershed": 25756, "scale": 8056, "\u0120VER": 37616, "istrates": 15596, "\u0120oper": 19470, "\u0120212": 14544, "\u0120Specific": 37699, "354": 34615, "\u0120clout": 28353, "\u0120Somewhere": 38885, "\u0120inconsistent": 16611, "Sequ": 48245, "\u0120Mold": 22013, "\u0120accompanies": 38487, "\u0120Historically": 29660, "\u01201958": 23102, "\u0120resemble": 25371, "\u0120Frontier": 21246, "akh": 7352, "\u0120government": 168, "1967": 44344, "\u0120theolog": 43562, "ate": 877, "\u0120consumers": 2360, "offensive": 34361, "\u0120swimming": 7358, "\u0120intolerable": 41210, "\u0120regularly": 4595, "\u0120CES": 18694, "\u0120Ver": 3060, "ldom": 47299, "lol": 46078, "\u0120Commit": 36886, "\u0120misleading": 12030, "ias": 5003, "\u0120Moss": 12496, "\u0120Krugman": 45818, "One": 3762, "\u0120renewables": 26618, "\u0120ups": 12744, "ById": 48941, "chron": 30630, "\u0120Geh": 35452, "\u0120accordingly": 14649, "opa": 24104, "bill": 24916, "\u0120email": 1047, "\u0120mont": 27121, "\u0120pursuant": 22918, "\u0120Elections": 15445, "\u0120Shad": 32166, "\u0120barg": 21936, "\u0120darn": 33800, "October": 20144, "Sphere": 45097, "235": 23821, "\u0120syndrome": 14115, "\u0120airstrike": 33949, "ilst": 32482, "\u0120experiments": 15491, "\u0120darkest": 29985, "jandro": 25787, "\u0120clauses": 30756, "\u0120<+": 50236, "\u0120Instruments": 27498, "\u0120activates": 42569, "lighting": 30181, "\u0120remnant": 43466, "look": 13724, "\u0120Nau": 30661, "\u0120parents": 1041, "conom": 35706, "\u0120KGB": 38077, "\u0120slave": 20174, "invest": 12406, "pound": 8833, "\u0120Chelsea": 3098, "\u0120Strike": 24044, "\u0120resurrect": 36839, "\u0120Gh": 5977, "gl": 7210, "\u0120POST": 26540, "easy": 36187, "\u0120supporters": 2732, "iets": 46809, "97": 6750, "\u0120rhythms": 32618, "\u0120locom": 29964, "\u0120upstairs": 20806, "\u0120bourgeois": 44980, "ifully": 34717, "=~=~": 50189, "\u0120hearts": 7754, "\u0120Dom": 11349, "\u0120influences": 16882, "ithub": 49665, "\u0120Carlson": 15988, "lat": 12805, "try": 33869, "foot": 2917, "\u0120Elementary": 8048, "\u0120Mond": 21387, "LG": 38820, "\u0120Surgery": 26793, "\u0120oil": 681, "\u0120Occ": 30994, "\u0120Gle": 19600, "btn": 49231, "\u0120microwave": 28562, "\u0120Joyce": 12181, "\u0120continuous": 11152, "\u0120participates": 33439, "\u0120valley": 15044, "\u0120boarded": 22250, "\u0120MPH": 39445, "\u0120seeking": 1818, "\u0120emb": 18484, "pocket": 27763, "\u0120Vern": 30073, "\u0120supplementation": 45304, "imm": 13255, "Fer": 42594, "\u0120necessarily": 4784, "\u0120nobility": 45560, "TeX": 49103, "\u0120intentional": 18797, "\u0120acknowledges": 17748, "\u0120precedent": 14462, "\u0120Either": 15482, "\u0120Guth": 27051, "Mesh": 47775, "Ass": 26039, "\u0120Summit": 7271, "\u0120sq": 17895, "launch": 37757, "irus": 19473, "\u0120hairy": 42175, "\u0120Canucks": 19011, "kee": 27408, "\u0120FS": 21218, "\u0120CFR": 42471, "\u0120\u00e2\u0129": 48850, "\u0120packet": 29635, "oiler": 46434, "\u0120lunar": 21641, "FUL": 39419, "\u0120prompting": 8868, "pite": 45308, "\u0120Rath": 24794, "lem": 10770, "\u0120dissemination": 35426, "\u0120Fee": 30745, "\u0120reversal": 17854, "\u0120implanted": 37042, "\u0120Evaluation": 37766, "\u0120notation": 46885, "\u0120gestures": 18693, "\u0120Dw": 16059, "\u0120spokesman": 1565, "\u0120spacing": 39152, "hedon": 48917, "\u0120Will": 2290, "\u0120dissemin": 27369, "\u0120Omega": 25040, "\u0120Liz": 14359, "\u0120dearly": 29677, "rum": 10904, "\u0120grave": 9753, "gard": 20474, "grounds": 20308, "\u0120J": 344, "current": 28311, "\u0120applaud": 19477, "297": 33342, "\u0120campuses": 14339, "\u0120Dudley": 24578, "\u0120Shine": 28276, "erry": 11228, "otti": 14683, "tests": 47173, "\u0120learners": 25929, "\u0120guru": 25259, "\u0120apr": 28200, "\u0120SHOULD": 41814, "\u0120administration": 942, "\u0120dodging": 38990, "\u0120attacks": 1912, "\u0120tonight": 3422, "ttes": 37923, "\u0120singing": 6970, "\u0120Ts": 7303, "\u0120palms": 38325, "fest": 13936, "\u0120predicate": 48206, "\u0120tel": 19676, "\u0120Schwarzenegger": 28797, "\u0120heal": 14384, "\u0120defeated": 5125, "tiny": 40743, "ition": 7469, "Gamer": 48379, "\u0120harmonic": 46336, "\u0120radiation": 13785, "\u0120Campaign": 11068, "\u0120Everett": 20961, "spection": 41708, "\u0120console": 12304, "\u0120mat": 7821, "\u0120academics": 16839, "ISE": 18819, "\u0120ice": 2480, "\u0120desire": 4724, "Favorite": 48236, "\u0120Pug": 28181, "future": 21290, "\u0120tuber": 46896, "\u0120Gau": 26651, "pg": 18188, "\u0120institutional": 4107, "\u0120gun": 1751, "\u0120clergy": 21064, "DonaldTrump": 48376, "impro": 33491, "\u0120Berm": 42675, "\u0120moms": 19323, "\u0120Petroleum": 9022, "RL": 17868, "\u0120Chosen": 43936, "etime": 16093, "\u0120jealous": 27064, "\u0120Kub": 23010, "ion": 1499, "\u0120crank": 30952, "411": 35775, "hn": 10245, "\u0120Hendricks": 24385, "\u0120Dav": 7234, "\u0120Nug": 25314, "\u0120objectives": 10366, "\u0120took": 362, "\u0120bas": 11909, "\u0120Avatar": 41246, "reason": 41995, "\u0120til": 19976, "FLAG": 46435, "\u0120Handle": 44883, "uno": 25217, "\u0120layer": 10490, "\u0120helm": 13885, "\u0120collector": 22779, "yah": 31785, "Jones": 22681, "warn": 43334, "zing": 10293, "\u0120storm": 2130, "\u0120will": 40, "non": 13424, "\u0120sensing": 29720, "Compare": 45448, "\u0120Until": 9012, "aeper": 49250, "oring": 5137, "\u0120mercenary": 44257, "\u0120LAN": 32425, "\u0120Games": 3100, "\u0120Optim": 28688, "\u0120fury": 22228, "\u0120lowering": 14565, "\u0120cho": 14310, "\u0120Mile": 14640, "\u0120cyber": 5381, "EMA": 26674, "istani": 41364, "\u0120di": 2269, "\u0120MOV": 34178, "\u0120inj": 30272, "bite": 33996, "\u0120Proposition": 27135, "\u0120Beirut": 27356, "trained": 23830, "Duration": 49404, "\u0120Overs": 43501, "\u0120carbohydrates": 34215, "ear": 4352, "\u0120flown": 13054, "\u0120mythology": 33875, "\u0120Nation": 5857, "\u0120Exam": 40083, "318": 34025, "\u0120Nationwide": 27812, "\u0120bitters": 28609, "\u0120substance": 6572, "alcohol": 28574, "\u0120exceed": 11514, "\u0120damned": 37689, "\u0120managerial": 27424, "\u0120\u00e2\u0128": 42543, "sounding": 36381, "pol": 19028, "acher": 8365, "minute": 4530, "abet": 32479, "\u0120plunder": 39757, "\u0120Imagine": 15467, "\u0120sinking": 19191, "\u0120Perfect": 17586, "soType": 50221, "\u0120ignorant": 27726, "\u0120turbine": 29503, "\u0120nervous": 7464, "\u0120senses": 24074, "\u0120boasting": 24764, "\u0120Wed": 9373, "athlon": 22166, "\u0120environment": 1737, "\u0120Psych": 33251, "\u0120goalt": 32385, "Tai": 41064, "\u0120warped": 42160, "\u0120Ning": 39479, "\u0120DRAGON": 48397, "\u0120Ram": 3513, "Layout": 49415, "uated": 14133, "\u0120effort": 1351, "\u0120intervened": 21187, "Delta": 38816, "\u0120careful": 7316, "\u0120341": 41179, "ten": 3869, "\u0120Natural": 7278, "\u0120Rabb": 34023, "\u0120practically": 15655, "otion": 19187, "\u0120Scouts": 17636, "ihadi": 37226, "\u0120liberated": 30243, "\u0120awfully": 38515, "\u0120necklace": 26922, "\u0120Mats": 20831, "testers": 29266, "Yu": 41826, "asu": 30007, "\u0120Languages": 44166, "\u0120Comet": 30594, "\u0120Gemini": 26577, "\u0120formatting": 44924, "\u0120projector": 35282, "\u0120pronouns": 43083, "\u0120Bour": 13023, "\u0120justification": 20727, "\u0120markup": 44233, "\u0120dependence": 20748, "\u0120precincts": 35131, "\u0120stem": 10114, "\u0120elevation": 25361, "\u0120GO": 11932, "Herm": 48126, "\u0120behaviour": 5759, "\u0120Sans": 25450, "ive": 2088, "hand": 4539, "\u0120CHR": 37918, "\u0120Middle": 2367, "\u0120feedback": 6456, "\u0120Marvel": 8714, "\u0120folk": 13134, "\u0120affect": 3327, "\u0120del": 2424, "adh": 16397, "\u0120franchises": 18154, "orative": 30635, "\u0120lawsuit": 2672, "\u0120weigh": 9832, "2003": 35153, "\u0120management": 1052, "\u0120Map": 18247, "three": 9983, "\u0120grams": 14080, "\u0120ecosystem": 10764, "\u0120Winner": 16783, "endif": 49741, "gz": 45328, "\u0120addictive": 26353, "\u0120revol": 34633, "lopp": 47338, "bye": 33542, "\u0120State": 331, "\u0120conceptual": 28647, "uh": 2957, "\u0120looted": 31467, ",-": 45693, "\u0120uptake": 33646, "igmat": 45319, "Tracker": 43438, "\u0120commerce": 13715, "652": 38413, "\u0120bro": 11051, "water": 5412, "\u0120sensitivity": 15608, "\u0120betting": 9262, "285": 26373, "\u00ee": 49190, "\u0120greatest": 3968, "iability": 34337, "mates": 11139, "\u0120clarified": 18135, "Software": 45752, "\u0120Puzzle": 45995, "\u0120approves": 28634, "TYPE": 48710, "\u0120370": 27173, "\u0120stealth": 27026, "Maker": 45111, "Justice": 29890, "\u0120guesses": 41173, "\u0120prior": 2052, "\u0120felt": 1299, "pecially": 45674, "\u0120refined": 15616, "END": 9309, "\u0120discontin": 29649, "cgi": 47753, "\u0120Techniques": 45334, "\u0120Bunny": 33470, "\u0120Awoken": 49611, "\u0120prop": 8462, "\u0120incarceration": 24849, "\u0120assured": 7189, "Ev": 25377, "\u0120innovative": 5497, "PI": 11337, "\u0120Lethal": 43817, "\u0120skeletons": 39528, "Kick": 44545, "Nob": 41597, "acket": 32561, "\u00e8\u00bf": 48145, "\u0120plants": 3451, "\u0120XIV": 44292, "undai": 45633, "\u00e3\u0125\u0141": 49644, "\u0120UPS": 21940, "\u0120circumcision": 45096, "\u0120Showdown": 41898, "\u0120weeds": 28292, "\u0120observes": 34649, "au": 1180, "\u0120PART": 19713, "\u0120Aux": 32119, "\u0120Respons": 25714, "\u0120Panasonic": 24718, "\u01201941": 27939, "\u0120Sorceress": 49359, "d": 417, "Bird": 39376, "folio": 18429, "Options": 47261, "contained": 40157, "\u0120avoiding": 11473, "\u0120Mog": 18059, "\u0120Significant": 35498, "\u0120Hatt": 32930, "\u0120MAKE": 39853, "\u0120stopped": 2294, "\u0120Ved": 27194, "lict": 29525, "\u0121": 49802, "\u0120messy": 18882, "\u0120heals": 43111, "achers": 19040, "gets": 30900, "apps": 32733, "\u0120builder": 20528, "Dallas": 36128, "\u0120powdered": 39143, "\u0120indist": 48118, "\u0120redevelop": 30607, "\u0120mutations": 28513, "182": 27127, "\u0120uterus": 36998, "\u0120GF": 32727, "\u0120bottom": 2576, "becue": 41368, "SON": 14452, "uti": 18078, "\u00c3\u012f\u00c3\u012f": 50066, "\u0120149": 24621, "\u0120incoming": 11433, "\u0120Session": 19374, "\u0120Styles": 20427, "\u0120confused": 10985, "args": 48204, "luster": 48202, "\u0120399": 41279, "\u0120interstate": 22233, "omsday": 41334, "\u00da": 46164, "\u0120Title": 13497, "NE": 9009, "ental": 13589, "\u0120Hearth": 46998, "\u0120Holder": 20198, "\u0120Atk": 47891, "those": 27768, "\u0120smoking": 7893, "\u0120jumps": 13855, "\u0120Picard": 41807, "\u0120lime": 23955, "\u0120Winds": 20357, "\u0120A": 83, "illery": 24463, "Officials": 35779, "\u0120situations": 5458, "nton": 30046, "initions": 49252, "acs": 21703, "four": 10231, "\u0120Rampage": 43304, "irk": 10126, "\u0120sor": 22696, "\u0120implicated": 23316, "flush": 47742, "Args": 49919, "\u0120passed": 1595, "\u0120flavors": 14250, "\u0120resonance": 35114, "\u0120fundamentally": 16894, "ooks": 28937, "\u0120on": 15, "izont": 48804, "91": 6468, "\u0120TIM": 18685, "\u00e5\u00a5": 48975, "\u0120unst": 35993, "\u0120444": 37067, "\u0120playoffs": 4673, "\u0120appreciated": 10874, "Want": 38576, "\u0120obliter": 35145, "\u0120forgive": 20184, "\u0120adaptation": 14082, "\u0120Vid": 23551, "\u0120rapidly": 6042, "\u0120intervention": 6530, "\u0120detector": 30956, "\u0120Government": 1621, "melon": 34092, "izations": 18391, "\u0120Kardashian": 7584, "Tyler": 40270, "\u0120manif": 46792, "916": 40299, "\u0120Buy": 4228, "\u0120vaginal": 34126, "gren": 22470, "facts": 34487, "icycle": 39943, "\u0120Zion": 24369, "\u0120Your": 2486, "\u01202048": 46920, "\u0120insign": 42381, "\u0120autumn": 13270, "\u0120Arbit": 28533, "\u0120shape": 3989, "\u0120detection": 12673, "\u0120pressures": 9985, "\u0120amy": 45024, "\u0120Is": 1534, "\u0120hazardous": 17099, "\u0120Pro": 1698, "\u0120demonic": 43116, "\u0120awful": 11522, "\u0120fruit": 6231, "\u0120Jeb": 26315, "\u0120galvan": 26939, "\u0120evict": 39369, "\u0120legislator": 23351, "\u0120Dota": 46042, "\u0120facade": 30914, "\u0120Mau": 14147, "\u0120demolition": 16607, "PIN": 46558, "\u0120profits": 4632, "\u0120Calendar": 29419, "\u00e3\u0123\u0135": 49047, "\u0120willfully": 41629, "\"\u00e2\u0122\u00a6": 46353, "\u0120McD": 8175, "\u0120normalized": 35247, "\u0120Berg": 15303, "\u0120Butt": 21165, "\u0120UNIVERS": 44135, "\u0120August": 830, "\u0120hither": 48586, "\u0120distress": 13250, "\u0120Norwegian": 11814, "sofar": 48257, "formance": 47196, "\u0120ut": 16080, "\u0120drives": 6790, "shirt": 8674, "\u0120Dark": 10524, "hel": 4393, "\u0120high": 239, "\u0120BMI": 33860, "Minecraft": 47950, "osphere": 29498, "nis": 10892, "\u0120metric": 14823, "\u0120boots": 10317, "may": 12488, "\u0120mainstream": 7302, "\u0120Bl": 2091, "\u0120py": 19290, "\u0120Highest": 36136, "\u0120whether": 549, "\u0120refinery": 13628, "\u0120explosive": 8560, "\u0120sending": 3981, "\u0120Nom": 11276, "\u0120contemplate": 32848, "\u0120Nik": 6575, "\u0120spurious": 43310, "\u0120urban": 4879, "\u0120dips": 29686, "\u0120submerged": 26233, "abilities": 25264, "WA": 8460, "WER": 45117, "\u0120Mohamed": 10225, "\u0120axle": 38134, "\u0120assault": 2080, "posal": 30999, "certain": 31097, "\u0120numer": 36247, "\u0120319": 37964, "\u0120deeper": 6635, "idelity": 19415, "\u0120Wash": 13852, "\u0120mate": 12563, "Resp": 44036, "\u0120affecting": 7920, "hy": 11108, "\u0120mm": 15408, "\u0120Put": 9722, "\u0120ceramic": 28238, "\u0120retake": 31090, "\u00c3\u00a7": 3381, "\u0120walk": 1656, "\u0120seemingly": 6590, "space": 25414, "\u0120Key": 4300, "odcast": 45795, "\u0120Born": 8912, "amoto": 27439, "\u0120regimen": 30174, "\u0120appreciate": 5478, "Bet": 33603, "vance": 27647, "Temperature": 48533, "\u012058": 4893, "\u0120Sniper": 44810, "bet": 14600, "\u0120drivers": 2377, "queue": 48702, "\u0120Barton": 18007, "\u0120awoken": 46227, "\u0120Silk": 26537, "\u0120pub": 8881, "\u00e2\u0122\u00a6\"": 23962, "eded": 8652, "zens": 37016, "riz": 21645, "\u0120Cycle": 31188, "ordan": 29742, "\u0120while": 150, "\u0120considering": 2811, "268": 31145, "\u0120toler": 30795, "\u0120Federation": 6692, "\u0120tangible": 16753, "\u0120sund": 28087, "\u0120raping": 20669, "\u0120Agent": 18497, "Return": 42555, "\u0120CY": 32854, "Vo": 37660, "llular": 45357, "\u0120wre": 21679, "\u0120antiv": 33561, "agles": 26007, "Ws": 41951, "326": 35766, "\u0120fumble": 16806, "Due": 28084, "\u0120eman": 38920, "\u0120Hulu": 18220, "\u0120Smoke": 21389, "pract": 37287, "----------------------------------------------------------------": 49308, "\u0120Karin": 38858, "\u0120Swanson": 26212, "description": 42739, "quad": 41666, "\u0120shorthand": 42585, "Deal": 43787, "\u0120detect": 10933, "\u01201995": 7969, "\u0120Amy": 6918, "\u0120bye": 15687, "resses": 13937, "\u0120burd": 32875, "\u0120Susp": 23867, "\u0120rice": 7666, "perial": 42383, "\u0120undertook": 34471, "\u0120affirmation": 35919, "ufficient": 43022, "\u0120beats": 13410, "\u0120Carmen": 23056, "\u0120progressives": 31627, "umbered": 40501, "centric": 19483, "\u0120Ty": 5957, "?:": 36538, "203": 25534, "\u0120Jacket": 39270, "\u0120gospel": 19753, "\u0120Pad": 9003, "\u0120choking": 26864, "psych": 33844, "Collect": 44252, "Any": 11913, "\u0120multicultural": 30286, "\u0120paradigm": 28323, "\u0120potatoes": 15042, "\u00d9": 26068, "\u0120meetings": 2891, "\u0120Utilities": 21884, "\u0120humble": 14083, "blank": 35763, "da": 6106, "\u0120kissed": 27046, "\u0120Strateg": 35662, "\u0120Alps": 30232, "\u0120highway": 6418, "\u0120bathing": 30260, "late": 19593, "\u0120Warfare": 40172, "\u0120symbols": 19830, "\u0120ions": 41985, "\u0120wisely": 27466, "\u0120poor": 2129, "\u0120Fifa": 32115, "\u0120skilled": 11086, "ccording": 49735, "atory": 5257, "demon": 34084, "\u0120Nigel": 16734, "\u0120tiny": 5262, "design": 23414, "\u0120Gol": 14494, "\u0120Hass": 27542, "\u0120Leaving": 28931, "\u0120MMR": 42558, "ior": 7375, "bj": 37303, "\u0120aliases": 44945, "forestation": 45317, "\u0120gaming": 6548, "oyer": 21410, "\u0120computation": 44042, "\u0120terrestrial": 39056, ",'": 1598, "\u0120deployments": 28684, "\u0120vegetation": 22178, "SAY": 46937, "\u0120Osh": 16519, "\u0120Hos": 16502, "rh": 20378, "\u0120bet": 5673, "\u0120reborn": 43524, "\u0120NAFTA": 13783, "\u0120unwilling": 20656, "\u0120reporting": 2207, "\u012039": 3191, "\u0120lasting": 9735, "\u0120maximal": 44995, "dq": 47518, "\u0120Indust": 34859, "Card": 23818, "\u0120billed": 17240, "Fan": 41300, "\u0120terminal": 9632, "\u0120contributors": 17233, "\u0120Fields": 15502, "\u0120expert": 3827, "antine": 43212, "\u0120ambient": 25771, "\u0120billboards": 30792, "\u0120unnecess": 49922, "\u0120Bengals": 12794, "umer": 26229, "\u0120expenditure": 12187, "\u00e6\u013f": 48414, "effective": 20278, "\u0120duct": 29259, "\u0120raced": 13795, "\u0120swift": 14975, "\u0120salad": 13153, "\u0120earns": 20709, "\u0120python": 39825, "\u0120Kyoto": 36663, "\u0120criminal": 1837, "\u0120Hin": 27506, "\u0120rebuke": 28155, "\u0120easily": 2773, "\u0120impacts": 7342, "\u0120critiques": 40234, "yrs": 39542, "\u0120Kemp": 16030, "\u0120Johnny": 8781, "\u0120spoken": 5826, "\u0120Dig": 16621, "\u0120versions": 7952, "\u0120outweigh": 25473, "\u0120teasing": 29752, "\u0120balcon": 39653, "\u0120innov": 18163, "\u0120Esports": 44566, "AND": 5945, "\u0120reinforced": 19816, "\u0120virt": 36704, "\u0120Identification": 36309, "\u0120\u00d9\u0127": 42620, "\u0120Raven": 22546, "comm": 24302, "\u0120Ys": 45586, "\u0120Arrest": 21827, "atered": 33114, "Timeout": 49405, "Oil": 32397, "\u0120Paradise": 10429, "\u0120Monte": 10138, "\u0120240": 15452, "\u0120lends": 31473, "paralle": 49148, "iries": 19947, "\u0120yen": 4796, "Reading": 43952, "\u0120\u00c2\u00af": 48465, "\u0120get": 120, "ride": 23167, "\u0120Celebrity": 14625, "\u0120minus": 10877, "uned": 37236, "\u0120bursting": 28548, "ovy": 35664, "adoes": 24263, "orneys": 22979, "\u0120anecdotes": 35922, "\u0120City": 412, "Ang": 25441, "\u0120continent": 9183, "\u0120Gel": 23493, "ESSION": 43400, "\u0120Chevron": 19406, "\u0120\",": 46481, "\u0120207": 27354, "oscopic": 40229, "Sand": 40213, "\u0120Peninsula": 11069, "\u0120Miracle": 28469, "\u0120cliffs": 35952, "\u0120vertically": 32039, "\u0120shields": 31768, "\u0120Schumer": 10783, "bly": 27104, "\u0120decades": 1724, "\u0120grandson": 16073, "\u0120197": 31633, "\u0120rides": 9668, "ali": 3644, "Mont": 24007, "\u0120INTO": 42068, "\u0120slay": 33044, "\u0120Mord": 32889, "\u0120boys": 2786, "\u0120reconciliation": 13229, "combat": 42880, "LS": 10463, "\u0120Concepts": 42939, "\u0120motorists": 12100, "\u0120racks": 34409, "manac": 44569, "\u0120melanch": 45565, "\u0120enables": 9849, "FREE": 44789, "\u0120sixteen": 32382, "\u0120flood": 5005, "atural": 47310, "\u0120ns": 48286, "\u0120Sect": 35770, "\u0120ni": 10265, "ji": 5186, "\u0120handguns": 30582, "\u0120berries": 30614, "Enc": 45780, "291": 33657, "\u0120nihil": 45063, "2000": 17472, "\u0120stri": 28213, "\u0120vampire": 39093, "\u0120Alchemist": 46848, "\u0120oversees": 14318, "\u0120enabling": 10298, "\u0120contingency": 24584, "\u0120Chili": 32878, "enty": 24997, "\u0120bracelet": 31996, "\u0120Lumia": 41234, "\u0120been": 57, "\u0120Cortex": 43925, "prim": 31044, "\u0120Explain": 44109, "\u0120visit": 825, "\u0120stealing": 9460, "\u0120graduating": 15128, "\u0120pits": 21488, "\u0120sclerosis": 32204, "\u0120sax": 31365, "century": 11046, "\u0120recapt": 24498, "\u0120fellows": 36304, "pace": 18851, "\u0120Projects": 23965, "\u0120splendid": 35803, "ANT": 11088, "\u00d0": 25417, "\u0120allocate": 25915, "\u00e2\u0138\u00ba": 49401, "\u0120Prom": 10772, "\u0120Thought": 30631, "\u0120Indonesia": 5722, "568": 40204, "Bel": 19877, "ptive": 46209, "\u0120horribly": 35907, "Redd": 48279, "\u0120----------------------------------------------------------------": 29483, "isoft": 47751, "\u0120Rage": 39316, "\u0120weave": 35810, "ashtra": 42252, "ench": 24071, "\u0120massacres": 39246, "oxin": 42194, "\u0120checklist": 36914, "\u0120Inter": 3870, "\u0120Compan": 44289, "\u0120deliberations": 21727, "\u0120helmet": 13722, "\u0120Whis": 27199, "\u0120Launcher": 44698, "\u0120Siberian": 39937, "metadata": 43702, "\u0120contrasting": 31003, "\u0120Fort": 3339, "\u0120MAX": 28066, "\u0120Okinawa": 36265, "\u0120protagonist": 24587, "Dash": 43653, "\u0120telesc": 45719, "entric": 44581, "ournaments": 45439, "pic": 19017, "\u0120accounting": 6846, "\u0120disclose": 9263, "\u0120disrespectful": 26401, "\u0120lungs": 19147, "ISC": 32953, "\u0120upgraded": 7084, "\u0120fine": 2051, "\u0120catalyst": 17069, "\u0120homicides": 24771, "\u0120populous": 24347, "\u0120twice": 2330, "\u0120faithful": 15828, "\u0120rain": 1895, "\u0120Horizon": 18092, "ulnerability": 45706, "\u0120Competition": 12791, "\u0120Woodward": 18479, "\u0120executives": 4585, "Applications": 46407, "\u0120Forced": 42659, "\u0120plush": 33677, "\u0120elapsed": 43291, "Metal": 44791, "\u0120touches": 12325, "\u0120directly": 2024, "\u0120sponsors": 8919, "elia": 30922, "ping": 15341, "stant": 20034, "EE": 9993, "________________________________": 40321, "301": 28167, "icester": 40755, "Container": 48557, "\u0120Nob": 25856, "\u0120Matrix": 29830, "\u0120defective": 31559, "\u0120HR": 11683, "\u0120Ending": 38202, "\u0120NBN": 37738, "\u0120kosher": 36930, "Sensor": 48733, "\u0120Nine": 10650, "azed": 16314, "\u0120quant": 24934, "cn": 24240, "043": 41665, "\u0120prosecuting": 24243, "1976": 44835, "\u0120Ran": 9462, "\u0120Valiant": 45649, "\u0120implying": 28695, "collection": 44443, "\u0120towards": 1567, "\u0120exhibited": 22495, "\u00e3\u0124": 47783, "\u0120embraced": 11589, "\u0120analyse": 28399, "\u0120buffs": 41953, "\u0120r": 910, "\u0120aluminum": 9757, "\u0120fiasco": 33512, "\u0120recognizable": 27308, "\u0120Oriental": 32719, "DIV": 35437, "\u0120east": 3017, "poon": 44679, "\u0120corrupted": 40124, "((": 48461, "\u0120conclusive": 37847, "148": 26300, "\u0120ill": 4812, "\u0120Montana": 8920, "\u0120reputation": 5070, "stein": 7864, "\u0120pose": 7277, "AAA": 27979, "month": 2151, "\u0120mentioning": 19280, "\u0120treatments": 8289, "\u0120admit": 8109, "\u0120delivering": 5830, "\u0120Pens": 17223, "inka": 18433, "ometry": 40899, "igned": 9044, "\u0120massively": 23268, "\u0120msg": 49049, "\u0120panels": 9217, "\u0120Janeiro": 20698, "\u0120clients": 2539, "Finding": 38867, "weapons": 43507, "752": 39738, "alore": 45013, "\u0120Jere": 34328, "Think": 26644, "\u0120disinteg": 32654, "\u0120bombing": 10183, "\u0120Vert": 26033, "\u0120blinked": 45652, "\\/": 48182, "Parts": 45305, "\u0120Recession": 28253, "\u0120account": 1316, "agogue": 38617, "\u0120curious": 10691, "However": 10462, "\u0120trendy": 24037, "\u0120inhabit": 36684, "Murray": 42463, "eligible": 40581, "ranked": 8970, "verning": 29946, "\u0120Income": 9628, "\u0120thats": 45365, "onomic": 42141, "\u0120Melissa": 11701, "olitan": 45021, "\u0120Aval": 41451, "tarian": 47441, "\u0120Percentage": 34522, "mu": 24249, "\u0120comparison": 6676, "Day": 10781, "\u0120Origin": 21042, "\u0120Tank": 19305, "\u0120empathy": 17805, "\u0120experien": 40850, "LAB": 44435, "blown": 22625, "votes": 45547, "export": 38099, "\u0120domains": 30700, "\u0120opposes": 20408, "\u0120autonom": 39930, "\u0120cough": 21768, "\u0120Regarding": 21255, "riers": 21724, "air": 2456, "\u0120pleaded": 4407, "\u0120PROGRAM": 44101, "\u0120Magnetic": 41289, "\u0120ripe": 23318, "thinking": 22710, "\u0120assemb": 38157, "\u0120performances": 4476, "justice": 28244, "\u0120Gonz": 11862, "\u0120stink": 39628, "\u0120permissible": 37585, "Philadelphia": 41524, "\u0120Gorge": 31407, "izzle": 37865, "\u0120horny": 46216, "\u0120toddlers": 31136, "\u0120civilians": 6321, "424": 35784, "species": 42826, "\u0120Shinra": 49776, "\u0120{\\": 49830, "\u00a5\u0140": 49676, "2015": 14420, "\u0120Fault": 42398, "urious": 35367, "\u0120manuscripts": 42486, "dream": 24009, "\u0120bearded": 38048, "\u0120ESV": 47840, "Bound": 46827, "\u0120Angola": 24755, "\u00c2": 4056, "\u0120Rove": 42145, "166": 27855, "lu": 6487, "\u0120proportions": 27311, "\u0120Zionism": 43256, "steen": 27295, "severe": 26251, "\u0120Nile": 22568, "\u0120your": 110, "\u0120Hubble": 37006, "\u0120envelope": 21035, "osterone": 46527, "Div": 37165, "\u0120almonds": 36655, "rench": 18723, "\u0120fri": 40404, "\u0120Sav": 9721, "\u0120performs": 14023, "\u0120mechanisms": 14519, "\u01202022": 8157, "Acc": 36984, "\u00e2\u013b": 38718, "\u0120strugg": 42889, "\u0120sudden": 7207, "\u0120numerous": 3617, "kaya": 26312, "ante": 5285, "Initialized": 50026, "\u0120bonus": 7944, "\u0120Aerial": 37550, "\u0120pinnacle": 34150, "\u0120AIDS": 17296, "ning": 3509, "\u0120Ruff": 28352, "Reilly": 16626, "\u0120Brunswick": 16143, "\u0120competitiveness": 17755, "\u0120Engineering": 9466, "OU": 5061, "group": 13839, "\u0120finalized": 16449, "\u0120differentiation": 37225, "\u0120challeng": 49545, "\u0120psychedel": 45444, "\u0120bombshell": 24332, "destroy": 42742, "\u0120282": 37988, "\u0120Best": 2700, "\u0120accepting": 8394, "\u0120funds": 1188, "unciation": 40434, "\u0120summon": 33411, "\u0120regrett": 31433, "\u0120distributed": 7664, "\u0120inciner": 36510, "hol": 9649, "\u0120forum": 7900, "\u0120subjective": 22262, "\u0120let": 905, "\u0120activist": 6024, "\u0120mistakenly": 26506, "vals": 21049, "\u0120beaut": 28651, "\u0120archives": 23697, "rays": 24192, "\u0120spaghetti": 33362, "\u0120Democratic": 1557, "\u0120detectors": 25458, "\u0120ensured": 14953, "\u0120Muk": 11623, ")=": 49143, "\u0120Know": 10690, "\u0120330": 21006, "lynn": 26153, "\u0120harass": 27395, "ctrl": 49355, "natureconservancy": 49990, "\u0120Yosh": 24824, "\u0120Gand": 27823, "Private": 38076, "\u0120flush": 24841, "Taking": 35490, "emon": 34344, "\u00d1": 22063, "\u0120Properties": 13094, "\u0120eats": 24923, "Brain": 44549, "\u0120109": 14512, "\u0120Dance": 11101, "\u0120Mysteries": 45614, "desc": 45091, "estinal": 49096, "\u0120Good": 2497, "\u0120IEEE": 44712, "\u01201962": 19515, "\u0120Cinem": 23488, "\u0120universe": 9468, "feet": 22023, "options": 45012, "\u0120WHAT": 13331, "\u0120Cornel": 33053, "\u0120Blast": 31610, "\u0120Northern": 2874, "\u0120charity": 4440, "\u0120Rousse": 22095, "\u0120written": 1982, "\u00e3\u0124\u00a8\u00e3\u0125\u00ab": 50038, "\u0120enclosure": 30654, "\u012037": 2908, "\u0120Extrem": 40313, "\u0120Horror": 28719, "cal": 11762, "opot": 43895, "\u0120Playing": 15861, "\u0120Farn": 30860, "\u0120Dish": 25847, "61": 5606, "\u0120Xan": 38965, "\u0120discriminatory": 22587, "\u0120Same": 17754, "\u0120bod": 28072, "\u0120Quest": 22360, "\u0120meme": 25426, "\u0120Comprehensive": 23539, "\u0120Santorum": 40621, "resource": 44814, "Dig": 42501, "\u0120ogre": 48238, "\u00e7\u00a5\u0140": 49684, "\u0120fairness": 16890, "\u0120bikini": 17059, "isations": 27890, "\u0120DE": 5885, "going": 12891, "\u0120pack": 6356, "ologue": 28789, "\u0120advancements": 23931, "\u0120hyp": 15671, "famous": 30688, "\u0120developments": 5126, "\u0120tempt": 34919, "\u0120Fishing": 28212, "inge": 18174, "\u0120376": 39543, "\u0120Chau": 27619, "\u0120Durham": 13558, "meter": 15139, "BUG": 48905, "designed": 23866, "\u0120deaf": 17138, "\u0120slows": 26368, "\u0120stranded": 13202, "\u0120iPod": 31077, "\u0120Mets": 9024, "\u0120Idle": 44553, "serious": 21231, "\u0120Fraz": 36979, "\u0120fraud": 3526, "bett": 28826, "note": 32903, "\u0120inspected": 22585, "\u0120graduates": 11295, "\u0120motor": 4243, "\u00c5\u012f": 38183, "\u0120Despite": 2285, "167": 25540, "\u0120Marriott": 18985, "\u0120xen": 26920, "\u0120confidential": 12143, "\u0120exacerbate": 33658, "\u0120\u00e0\u00a8": 49263, "liament": 37078, "\u0120Kang": 14796, "sequence": 46665, "323": 32624, "\u0120tooth": 13495, "\u0120tight": 3229, "\u0120utopian": 43995, "\u0120Trends": 16565, "\u0120convicted": 3828, "she": 8877, "\u0120prices": 850, "\u0120grows": 11461, "\u0120SQU": 42867, "\u0120greet": 17395, "\u0120drift": 24144, "\u0120disposal": 12307, "\u0120intersection": 8088, "ributes": 13183, "shine": 39443, "\u0120accustomed": 21090, "\u0120aud": 9818, "uner": 25131, "mong": 27669, "\u0120maps": 12879, "riched": 46129, "598": 38097, "\u0120Ultimately": 13832, "\u0120browsers": 35855, "\u0120Petr": 27239, "\u0120Nav": 8236, "\u0120Lebanese": 17146, "\u0120max": 19220, "sung": 34160, "BC": 3573, "\u0120ensure": 1306, "\u0120Imm": 14000, "\u0120boom": 8600, "651": 39060, "\u0120time": 86, "\u0120demographic": 15343, "\u0120paraph": 40127, "\u0120Parm": 30471, "\u0120foreseeable": 22071, "\u0120cand": 23505, "par": 5489, "metal": 32961, "stanbul": 46770, "open": 12592, "\u0120Medal": 17823, "\u0120endogenous": 47670, "\u0120spared": 20634, "\u0120metaphysical": 46329, "\u0120reviewing": 9311, "SN": 12436, "\u0120Leonardo": 20683, "\u0120shuttle": 19463, "\u0120Mari": 19702, "\u0120transsexual": 47147, "537": 39155, "\u0120Outside": 13149, "\u0120Northwestern": 14776, "\u0120Animal": 9678, "\u0120analges": 45623, "Lv": 46771, "mult": 42527, "BILITIES": 45490, "anson": 15927, "\u0120narrowed": 20546, "\u0120slash": 18304, "\u0120appendix": 38836, "interesting": 42746, "aed": 20380, "ked": 10916, "\u0120plaus": 44819, "\u0120vagina": 32461, "\u0120Nano": 32487, "\u0120cross": 2116, "\u0120Leth": 35764, "ables": 6058, "\u0120sharing": 3565, "\u0120Perhaps": 6259, "+": 2744, "yer": 6426, "alloween": 42032, "nuts": 22483, "\u0120dam": 9656, "zyk": 22133, "1600": 40807, "greg": 40745, "\u0120toxin": 38977, "\u0120OUR": 24975, "quila": 27224, "\u0120OR": 6532, "\u0120hanging": 7209, "\u0120handful": 6095, "\u0120Kers": 21140, "Cra": 47137, "girls": 26778, "\u0120Sept": 1919, "abetic": 44367, "AME": 30104, "Currently": 35416, "\u0120councils": 14751, "\u0120Laure": 17263, "\u0120admission": 7988, "Dir": 47608, "\u0120bruised": 26360, "\u0120dot": 16007, "c\u00c3\u00a9": 12695, "\u0120severely": 11166, "ULTS": 35843, "\u0120accomp": 47331, "\u0120propriet": 32130, "bringing": 44710, "\u0120engages": 21549, "\u0120accusations": 6124, "\u0120Hamp": 25226, "\u0120hp": 29886, "\u0120Ruin": 46332, "esson": 24711, "\u0120tripod": 41570, "\u0120esc": 11363, "ward": 7767, "\u0120touting": 28818, "\u0120Ready": 19325, "\u0120Stuff": 25076, "\u0120floating": 11291, "\u0120APIs": 35329, "ileged": 33421, "\u0120npm": 47922, "\u0120teamwork": 29736, "\u0120loans": 2973, "\u0120understanding": 2969, "Apply": 47456, "ANE": 19621, "af": 2001, "\u0120ignoring": 15515, "\u0120swim": 6966, "\u0120disc": 9553, "\u0120manag": 45718, "\u0120nitrogen": 23040, "\u0120wallpaper": 37103, "\u0120gr": 4435, "\u0120Bottom": 22116, "\u0120bids": 10740, "\u0120Geological": 26008, "\u0120burglary": 11910, "\u0120defied": 25952, "\u0120prominently": 26584, "\u0120IDs": 35172, "\u0120Nike": 10239, "\u0120omin": 43492, "erk": 13760, "steam": 46614, "\u0120Carib": 34093, "Ultra": 45611, "Certainly": 32476, "Po": 26170, "Exper": 45395, "\u0120extremism": 18549, "\u0120Builder": 40916, "\u0120percussion": 34077, "volent": 40180, "Environmental": 45311, "Pot": 35516, "\u0120Sacramento": 7759, "word": 14742, "\u0120scales": 21423, "\u0120millennium": 38751, "\u0120arisen": 38799, "ANN": 15118, "\u0120Referred": 47374, "1978": 44475, "\u0120Mu": 6186, "\u0120Kes": 18987, "\u0120plank": 32608, "\u0120band": 1971, "\u0120Curiosity": 38117, "\u0120practical": 7708, "Cy": 25826, "\u0120pronounced": 9015, "ISH": 14849, "\u0120Pars": 31443, "uras": 33323, "\u0120398": 42453, "\u0120prepares": 12273, "\u0120randomly": 22422, "\u0120Bell": 3043, "\u0120toughest": 14728, "\u01202012": 1125, "\u0120broadband": 11451, "itational": 17166, "\u0120vanquished": 44400, "hu": 6455, "\u0120reluctantly": 33146, "roma": 43831, "Roman": 38962, "Tokens": 49235, "unc": 23735, "\u0120capturing": 16153, "\u0120Watts": 16716, "\u0120gastro": 39678, "\u0120custod": 22790, "\u0120protesting": 12779, "\u0120freeway": 23718, "\u00e3\u0125\u00a2": 49768, "Pac": 35625, "\u0120Wax": 33876, "\u0120Territories": 35850, "\u0120paperback": 42979, "\u0120Franch": 40013, "nox": 47484, "\u0120subscribers": 8291, "Removed": 49699, "strous": 47951, "\u0120conspiracy": 6556, "\u0120visions": 28420, "\u0120seldom": 28010, "\u0120pork": 12072, "\u0120adversity": 22837, "\u0120choosing": 8348, "\u0120abdomen": 28398, "BuyableInstoreAndOnline": 50228, "\u0120Applied": 24298, "\u0120rationale": 23437, "\u0120increments": 40390, "aws": 17415, "Where": 13841, "\u0120Budapest": 22911, "\u0120emphasizing": 27232, "\u0120alleviate": 19893, "itent": 37403, "\u0120optional": 17679, "Vice": 37142, "merga": 41386, "ids": 7823, "\u0120propensity": 36186, "indal": 45259, "\u0120Mages": 48856, "grain": 42010, "\u0120corporation": 12772, "\u0120exhaustive": 29180, "\u0120limestone": 37126, "ourmet": 23299, "\u0120TER": 28107, "shr": 42098, "\u0120visitor": 13338, "\u0120earners": 26918, "\u0120nuns": 34274, "\u01201902": 43289, "\u0120Hodg": 20452, "\u0120arter": 39929, "\u0120unavoidable": 35074, "\u0120foreground": 39299, "\u0120Dude": 42127, "Please": 6715, "\u0120Cork": 19232, "\u0120scandals": 14748, "\u0120stro": 28561, "\u0120housing": 2004, "devices": 44326, "\u0120conclud": 49086, "\u0120contribut": 42423, "ocr": 32508, "\u0120Theodore": 26164, "\u0120sidel": 44324, "\u0120tim": 15679, "\u0120transported": 8139, "\u0120violates": 20312, "\u0120OB": 28214, "\u0120Huma": 42981, "stellar": 45355, "\u0120defiant": 23802, "\u0120Inspect": 32429, "\u0120reinforce": 19510, "icia": 16488, "\u0120sucker": 40454, "urd": 6831, "ulators": 17810, "\u0120zoning": 17259, "izen": 26821, "\u0120subscribing": 13661, "na": 2133, "\u0120sighting": 30470, "\u0120telescopes": 35623, "Ble": 40370, "\u0120ancest": 48953, "peror": 47839, "plin": 28291, "Female": 45186, "\u0120imported": 10590, "\u0120Trinity": 13544, "\u0120comprehens": 32616, "raised": 33161, "icans": 37260, "\u0120instance": 4327, "\u0120eleven": 19353, "Sing": 26292, "\u0120transformations": 39604, "\u0120Groups": 26599, "iday": 21746, "\u0120authentication": 24790, "\u0120vouchers": 25137, "\u0120vandal": 24604, "\u0120WORK": 32008, "\u0120illusion": 24654, "ropolis": 26510, "\u0120457": 42346, "\u0120still": 202, "\u0120animosity": 34351, "\u0120Canada": 896, "ropri": 26049, "\u0120deprive": 35858, "\u0120Bone": 25719, "\u0120medal": 5279, "\u0120exagger": 33424, "\u0120Issue": 25422, "\u0120slamming": 26963, "Bir": 41651, "\u0120Remote": 33565, "\u0120187": 29373, "\u0120corrosion": 37092, "\u0120typh": 27429, "oran": 25036, "\u0120Aerospace": 22479, "\u0120popup": 44943, "\u0120hell": 7105, "wall": 12764, "\u0120times": 498, "\u0120empir": 46533, "bish": 44011, "\u0120Akira": 41644, "\u0120typew": 42012, "\u0120competitions": 9150, "\u0120notoriously": 23455, "Method": 47967, "\u0120propelled": 23396, "\u0120laundry": 16937, "\u0120tenets": 38218, "\u0120contribute": 5042, "\u0120savage": 32264, "423": 34986, "\u0120held": 547, "\u0120sells": 7683, "\u0120knocked": 6536, "\u0120Mush": 21804, "\u0120396": 43075, "\u0120Infantry": 35614, "\u0120AWS": 26177, "\u0120Heb": 31958, "\u0120matchups": 22732, "\u0120Upton": 26541, "\u0120redundant": 31813, "557": 38781, "\u0120positions": 2452, "\u0120cub": 18383, "\u0120atop": 12619, "\u0120closures": 11610, "Internal": 47666, "\u0120embodiment": 39441, "\u0120air": 935, "\u0120Pirate": 39666, "\u0120Slam": 10446, "enger": 24290, "\u0120GREAT": 35622, "Mat": 30121, "\u0120stool": 35264, "INT": 17831, "\u01202030": 12060, "gue": 28338, "\u0120y": 1423, "\u0120Aadhaar": 23296, "\u0120consolation": 23533, "\u0120triangles": 45422, "\u0120functions": 8047, "\u0120attempt": 2120, "\u0120uncontrolled": 38411, "orrect": 42892, "\u0120orbits": 38786, "deep": 13637, "erc": 11180, "\u0120dynamically": 42972, "\u00c2\u00af": 47350, "Property": 44720, "\u0120organize": 14192, "\u0120Mean": 30750, "\u0120Romeo": 24069, "\u0120prevalent": 18689, "nets": 39939, "\u0120entire": 1445, "511": 38900, "\u0120Fare": 29035, "\u0120attaches": 40459, "named": 26442, "\u0120Coc": 23344, "\u0120demise": 18006, "\u0120Cape": 6268, "eyes": 36078, "\u0120specials": 24827, "\u0120chances": 3255, "\u0120complementary": 25402, "requisite": 47280, "aji": 10440, "\u0120advising": 16442, "\u0120Has": 6233, "\u0120132": 19376, "\u0120objectionable": 41133, "\u0120Wiki": 45569, "\u0120eruption": 20945, "\u0120Cube": 29378, "peat": 45047, "playing": 20180, "\u0120preferential": 33343, "\u0120broaden": 25460, "\u0120floods": 12530, "\u0120ACTION": 40733, "\u0120Bulk": 39178, "\u0120assemble": 24054, "\u0120Mek": 32511, "\u0120directives": 29256, "\u0120decentralized": 34930, "achus": 46798, "\u0120assumed": 9159, "hold": 4208, "\u0120canal": 21259, "edu": 13452, "\u0120balance": 2394, "3": 246, "Danny": 36525, "\u0120succeeds": 28121, "\u0120killed": 848, "\u0120Honey": 13834, "Hyp": 47177, "resy": 48255, "\u0120corrupt": 10334, "\u0120amused": 36530, "ycle": 44397, "\u0120CHAR": 24316, "\u0120angles": 19811, "137": 25319, "\u0120review": 1551, "nut": 10873, "\u0120action": 814, "\u0120AoE": 49715, "\u0120taller": 26647, "\u0120casinos": 20353, "\u0120Steel": 8114, "\u0120released": 703, "FOR": 27201, "\u0120roles": 4502, "\u0120chem": 28033, "\u0120tabl": 41048, "isible": 38468, "\u0120brim": 40773, "ibo": 18232, "VEN": 32260, "\u0120Ton": 18405, "Slow": 43725, "chieve": 48316, "\u0120Reply": 6672, "\u0120Stevens": 10283, "OTO": 33770, "ins": 1344, "hetical": 43053, "jump": 43750, "\u0120Advisor": 13050, "\u00f0\u0141\u0133": 31193, "lifting": 22529, "toggle": 49476, "Ian": 37733, "\u0120facts": 4905, "NAS": 3399, "2005": 32857, "\u0120Kore": 18650, "\u0120Android": 3208, "\u0120kn": 11269, "anas": 16264, "\u0120Bangladesh": 7077, "HC": 13459, "\u012021": 733, "\u0120kind": 761, "olves": 34190, "URI": 42338, "adjusted": 25350, "ena": 4242, "\u0120Reds": 9269, "\u0120sock": 37390, "Wheel": 43560, "ARS": 22210, "Because": 10105, "\u0120figuring": 18877, "\u0120forfeiture": 33191, "\u0120trim": 10723, "iew": 19420, "misc": 45321, "seed": 28067, "\u0120redeemed": 37094, "\u00c3\u00a9r": 20765, "bur": 10734, "\u0120fetch": 23366, "usc": 20214, "selves": 44513, "\u0120Jewish": 4586, "etooth": 44969, "\u0120operations": 1414, "and": 463, "\u0120votes": 2834, "\u0120portfolios": 16465, "803": 39440, "etta": 10464, "\u0120revamped": 21920, "\u0120make": 146, "nsics": 34474, "\u0120sponge": 36499, "\u0120Reasons": 24776, "\u0120PROV": 22000, "\u0120HOW": 22062, "\u0120fueling": 24868, "\u0120endeavors": 30025, "\u0120sly": 40568, "\u0143\u00b7": 49929, "\u0120walks": 5792, "ohl": 24466, "apa": 17433, "\u0120grounds": 5619, "\u0120filibuster": 33109, "\u00ae": 2840, "posure": 42286, "\u0120kindness": 15963, "\u0120\u00d8": 25790, "\u0120MM": 24537, "\u0120Finch": 22171, "ACT": 13709, "\u0120Asc": 41349, "\u0120amuse": 45141, "\u0120corporate": 2365, "\u0120epidemic": 11004, "\u0120Prepar": 32134, "\u0120Kau": 21266, "\u0120Visual": 25878, "ibia": 18739, "uggish": 45283, "\u0120gallon": 17126, "yon": 21743, "\u0120jokes": 11248, "\u0120dots": 26221, "andr": 36326, "\u0120manufactures": 17611, "alsa": 37987, "\u0120McK": 9859, "verting": 40606, "\u0120Keynes": 33897, "\u0120Reason": 31613, "\u0120assigned": 5530, "\u0120Deadly": 39500, "friendly": 6928, "\u0120photograp": 38409, "\u0120fungi": 40470, "\u0120variation": 21875, "\u0120lid": 13431, "\u012018": 504, "YN": 31644, "CM": 18814, "\u0120optical": 17547, "\u0120with": 19, "\u0120fug": 36752, "\u0120258": 36586, "agall": 44195, "iour": 39192, "\u0120Film": 6026, "\u0120users": 1434, "\u0120bouts": 24750, "hra": 20101, "\u0120Kiss": 22426, "\u0120famously": 13455, "\u0120inappropriately": 27281, "\u0120Dragons": 20813, "\u0120environmentally": 20595, "\u0120Foss": 31432, "unia": 46472, "dir": 41292, "\u0120Moody": 11776, "agent": 23224, "\u0120g": 821, "\u0120forth": 7264, "\u0120flirt": 33743, "\u0120Writ": 44740, "\u0120Battles": 42176, "An": 4688, "591": 40284, "\u0120invading": 36177, "\u0120Sicily": 34315, "\u0120hits": 2323, "\u0120congratulations": 24285, "finder": 38116, "\u00c2\u00ae,": 25333, "\u0120Cuomo": 12513, "009": 37892, "GO": 14740, "\u0120Against": 9174, "\u0120(>": 47529, "\u0120heaven": 18478, "\u0120ADHD": 33286, "Capture": 48097, "\u0120sack": 14072, "\u0120receiving": 2806, "\u0120allev": 32216, "\u0120Worst": 31846, "\u0120Thanks": 4557, "\u0120sum": 6797, "\u0120refinement": 41722, "\u0120complain": 11316, "\u00b3": 15264, "\u0120Lead": 14243, "iser": 5999, "\u00f0\u013f": 40756, "\u0120struck": 2322, "\u0120struggled": 3956, "\u0120symmetry": 43769, "FY": 28409, "\u0120defy": 29160, "umbling": 16250, "\u0120Gospel": 24292, "sle": 37945, "\u0120derivative": 30666, "\u0120consumption": 4850, "FFER": 45234, "\u0120policies": 1986, "York": 31609, "\u0120Wanted": 33149, "\u0120ops": 38801, "\u0120observing": 21981, "ierrez": 48036, "\u0120rather": 1195, "BIT": 5871, "\u0120thinly": 33058, "\u0120chunk": 15836, "VM": 20954, "mage": 43807, "gae": 34211, "\u0120throwing": 5336, "\u0120ger": 18250, "\u0120fill": 3300, "ii": 4132, "\u0120Greeks": 29658, "eren": 8663, "\u0120Walsh": 10323, "\u0120impacted": 7284, "\u0120cannabinoid": 44351, "\u0120photographed": 16372, "\u0120Personal": 13129, "\u0120remarkably": 20635, "notice": 44264, "\u0120blurred": 34186, "\u0120Elev": 32099, "kell": 25723, "\u0120Ethnic": 42652, "\u0120begging": 22901, "PF": 16088, "593": 39785, "\u0120tubes": 25587, "\u0120demonstrate": 8085, "287": 30928, "\u0120Oslo": 26067, "\u0120Jones": 1454, "\u0120assurance": 15492, "\u0120billion": 325, "\u0120divor": 35447, "Opp": 39892, "\u0120assumes": 20573, "ab": 873, "\u0120Gardner": 11309, "imize": 41530, "\u0120165": 20750, "\u0120jersey": 11458, "\u0120sow": 22600, "\u0120Aven": 17204, "755": 36434, "\u0120mismatch": 37109, "EGIN": 39764, "\u0120Moment": 21474, "\u0120milestone": 9974, "Born": 39722, "C": 347, "\u0120samurai": 44665, "Atlantic": 24561, "CVE": 45778, "\u0120enriched": 33389, "\u0120Bai": 33155, "asta": 17078, "riction": 44896, "Privacy": 46591, "\u0120immigrant": 8910, "ially": 11416, "Keep": 28407, "\u0120benefits": 1795, "\u0120Jorge": 15580, "\u0120Comed": 32200, "\u0120dedicated": 3688, "Employ": 38031, "\u0120Centre": 2521, "\u0120trump": 20125, "another": 30303, "laun": 30866, "containing": 42480, "Last": 10285, "born": 5400, "\u0120preval": 48299, "\u0120Garg": 30156, "ittens": 43443, "imposed": 24039, "\u0120Jeremiah": 27552, "\u0120composer": 17964, "eton": 30206, "\u0120Sentinel": 12508, "too": 15605, "\u0120Raphael": 29719, "street": 20521, "\u0120organism": 33993, "ethyl": 30298, "Own": 40839, "Director": 35789, "\u0120convictions": 12618, "rm": 22900, "\u0120cryptographic": 45873, "none": 39763, "\u0120Finance": 4090, "\u00e5\u00b0": 47842, "\u0120Reyn": 31268, "\u0120Chess": 36163, "\u0120Shap": 35069, "\u0120evac": 13723, "Oracle": 47003, "\u0120December": 719, "RAL": 22881, "\u0120spectators": 17596, "\u0120Didn": 31940, "\u00cb\u012a": 49066, "\u0120opinions": 5086, "\u0120illusions": 38518, "\u0120Pope": 8509, "ocument": 47432, "\u0120penny": 20879, "\u0120Bears": 6033, "\u0120arrangements": 7863, "456": 34781, "\u0120unamb": 40624, "\u0120contrad": 48318, "\u0120Oblivion": 47898, "wordpress": 42789, "Domin": 34826, "\u0120darts": 39404, "\u0120\"<": 49900, "UTH": 37985, "\u0120ensures": 14905, "\u0120YPG": 27165, "\u0120pinch": 15168, "\u0120Fran\u00c3\u00a7": 43760, "\u0120Resident": 25188, "\u0120discounts": 12018, "Machine": 46100, "\u0120Zer": 37443, "\u0120manufactured": 13918, "\u0120craw": 36526, "ational": 5033, "\u0120scan": 14194, "\u0120season": 191, "asel": 44123, "Special": 25110, "\u0120Shrine": 35880, "\u0120Bolton": 12160, "\u0120::": 35965, "\u0120Bruce": 5409, "\u0120pod": 9371, "Environment": 46291, "\u0120documents": 2339, "\u0120deployment": 9737, "otyp": 43938, "\u0120Virus": 41199, "\u0120GHC": 46635, "Ont": 37618, "\u0120infectious": 19166, "\u0120quests": 43491, "oug": 13098, "\u0120Runs": 39855, "\u0120Generations": 42137, "\u0120comics": 19453, "\u0120financing": 5200, "\u0120pandemonium": 45235, "\u0120Celestial": 44902, "600": 4697, "\u0120Gall": 7155, "jc": 36699, "\u00d8\u00aa": 38605, "\u0120departments": 6522, "\u0120lesions": 40841, "630": 31181, "ivil": 41868, "\u0120regex": 49466, "rongh": 47924, "\u0120Aber": 20800, "\u0120stunt": 16391, "\u0120garnered": 15913, "\u0120topped": 8319, "\u0120hung": 10601, "Ir": 34547, "\u0120Engineer": 24379, "wrap": 45705, "\u0120Stard": 42106, "iation": 16546, "\u0120whereabouts": 16130, "uristic": 46177, "\u0120rhy": 38463, "irs": 21098, "Repe": 34053, "\u0120Canadians": 8522, "Army": 41810, "\u0120cartels": 33036, "iven": 19239, "\u0120effectiveness": 12833, "\u0120fits": 10698, "appro": 27666, "thereal": 38537, "rendered": 47392, "\u0120patrolling": 26706, "\u0120Caroline": 11820, "\u0120units": 2833, "\u0120Angular": 47009, "\u0120Bath": 14946, "\u0120soph": 33405, "\u0120semen": 41291, "160": 13726, "\u0120Glas": 35497, "\u0120Discount": 24142, "\u0120Charm": 34959, "\u0120Kabul": 15767, "\u0120toys": 9492, "\u0120ramps": 27465, "\u0120identifies": 18785, "\u0120Com": 4556, "\u0120stalking": 27795, "\u0120sleeve": 24150, "\u0120Ramsey": 14658, "\u0120Goddard": 32603, "\u00e0\u00a8": 48187, "\u0120hijacked": 30937, "\u0120antib": 42814, "\u0120tobacco": 9681, "ollar": 38298, "\u0120receptors": 37574, "rouse": 33214, "\u0120Hip": 20496, "Could": 35299, "anned": 12788, "\u0120retaliation": 14167, "\u0120unison": 38280, "\u0120doubts": 10903, "\u0120Olsen": 22497, "\u0120subscribe": 11222, "\u0120diplomats": 10055, "\u00e3\u0125\u0137\u00e3\u0124\u00a9": 49885, "orthodox": 47144, "inence": 39183, "\u0120grids": 38446, "\u0120undoubtedly": 14217, "\u0120alleg": 38147, "\u0120intakes": 43954, "\u0120imitation": 40059, "\u0120Martinez": 7190, "\u0120located": 2034, "\u0120LAPD": 32908, "killers": 27621, "\u0120Sparkle": 45884, "\u0120pamphlet": 43157, "\u0120Ah": 7746, "\u0120Garmin": 35338, "\u0120Conver": 36608, "elected": 15672, "ALL": 7981, "aneers": 47258, "\u0120partial": 9801, "chuk": 20756, "\u0120environments": 11534, "\u0120Loan": 18934, "].\"": 28578, "\u0120actu": 31129, "\u0120Marcel": 16263, "\u0120reass": 13057, "\u0120Trainer": 31811, "\u0120organisers": 16180, "\u0120tremendously": 26409, "\u0120Chef": 13821, "\u0120th": 3553, "\u0120ath": 43556, "\u0120visibility": 11915, "\u0120supposedly": 14032, "\u0120Sik": 17209, "\u0120materially": 11463, "Channel": 17305, "\u0120Protoss": 49737, "itchie": 23573, "agonal": 43270, "\u0120percentile": 42097, "intern": 44115, "760": 31222, "\u0120Dep": 6748, "MIT": 36548, "gu": 5521, "\u0120Swamp": 39235, "\u0120Davis": 2505, "\u0120narrowing": 29360, "ahoo": 36055, "\u0120Want": 7348, "Joy": 37252, "\u0120tucked": 21222, "ormon": 46408, "\u0120Spicer": 12954, "187": 30024, "ter": 1334, "\u0120Cla": 28100, "1998": 39476, "\u0120Kessler": 28088, "\u0120fries": 22391, "\u0120amusing": 31236, "zan": 13571, "\u0120recently": 682, "\u0120Nic": 13608, "\u0120Cinderella": 34800, "\u0120Honour": 28237, "antics": 46304, "\u00cc": 44025, "\u0120hemorrh": 36020, "402": 34324, "aturday": 47035, "\u0120inert": 43783, "\u0120Creature": 46642, "\"[": 48742, "\u0120Daisy": 25246, "\u0120toppled": 21753, "\u0120effective": 2375, "\u0120ded": 22761, "\u0120Starcraft": 48722, "orp": 10782, "\u0120Compensation": 35018, "inem": 10748, "\u0120moment": 1151, "\u0120Grand": 2374, "\u0120Everyone": 7632, "\u0120blasp": 44605, "\u0120hitting": 3022, "entary": 39494, "\u0120perfection": 19858, "over": 2137, "\u0120sword": 20744, "\u0120veil": 31251, "\u0120proud": 2602, "\u0120unity": 8618, "\u0120prelim": 32941, "\u0120Knock": 32365, "\u0120infantry": 35101, "successfully": 46958, "\u0120veterans": 4823, "abetes": 42603, "\u0120USE": 33359, "\u0120Cato": 40442, "\u013b\u0124": 48985, "otte": 17034, "\u0120cannabinoids": 43488, "\u0120NT": 19815, "\u0120sunglasses": 17510, "series": 22760, "\u0120mish": 24601, "\u0120lucky": 5394, "\u0120Jays": 10929, "\u0120alloc": 42793, "\u0120fulfilling": 18112, "Thompson": 41835, "718": 38590, "bas": 15609, "\u0120Winston": 12415, "\u0120racial": 6689, "\u0120English": 2370, "\u0120appropriations": 32877, "\u0120transitioning": 26135, "Has": 35634, "\u0120deposited": 24232, "\u0120scoff": 34564, "\u0120clarify": 14246, "\u0120tooltip": 49586, "grand": 11377, "\u0120chang": 24622, "\u0120noisy": 28269, "\u0120adhesive": 40760, "\u0120fundamentals": 14584, "\u0120overview": 13433, "\u0120East": 953, "\u0120Sections": 37028, "\u0120property": 1038, "\u0120Nit": 19272, "\u0120GNU": 45928, "\u0120Cortana": 37080, "amsung": 48545, "\u0120Miami": 2561, "\u0120pepper": 10702, "\u0120colder": 19727, "\u012083": 8101, "OC": 4571, "\u0120jungle": 21086, "\u0120Lat": 9882, "\u0120prob": 16245, "single": 25382, "olini": 35257, "oy": 2160, "\u0120holes": 6538, "\u0120Alma": 33277, "\u0120resettlement": 30855, "ue": 1780, "apply": 44847, "\u0120Clement": 16282, "\u0120filling": 8794, "\u0120Crypt": 28850, "ollywood": 9718, "\u0120recognizes": 15637, "\u0120HS": 21499, "Likewise": 47498, "\u0120Safety": 5264, "\u0120extend": 4442, "\u0120dispensaries": 27347, "\u0120compose": 38003, "ophers": 30482, "\u0120Valkyrie": 45027, "\u0120palate": 35726, "\u0120demonstration": 9961, "\u00c3\u0125\u00c3\u0124": 50048, "NASA": 34665, "iere": 14116, "\u0120Tut": 25151, "\u0120Christy": 28443, "icrobial": 40467, "abb": 8448, "\u0120ridic": 42092, "packing": 37874, "\u0120EDITION": 46520, "\u0120ordeal": 17702, "\u0120overload": 37636, "\u0120advice": 2949, "Hill": 32911, "\u0120Bil": 11611, "iatric": 21303, "bitcoin": 47197, "TY": 6175, "Month": 43299, "Pen": 32884, "thodox": 43469, "urred": 27024, "\u0120Ballistic": 46589, "\u0120harsh": 9776, "san": 14832, "\u0120rusty": 36069, "\u0120\u00e2\u0122\u0136": 93, "\u0120luck": 6620, "\".[": 49070, "\u0120produces": 9108, "\u0120association": 5259, "\u0120liberty": 17574, "Rum": 40277, "\u0120Cross": 4415, "\u0120roadside": 22493, "organized": 29835, "usk": 14570, "\u0120incorporates": 24536, "Ter": 32579, "\u0120Everest": 26819, "ord": 3109, "\u0120firm": 933, "\u0120meaningful": 6667, "\u0120resided": 39578, "lr": 35265, "listed": 11301, "\u0120Ric": 9039, "\u0120Eleanor": 29396, "\u0120swoop": 26862, "\u0120doctor": 3299, "fix": 23032, "\u0120Sr": 8482, "\u0120chocolate": 7548, "ISO": 43535, "430": 29821, "\u0120prim": 9156, "\u0120dominion": 46430, "oway": 20574, "\u0120Hyper": 22296, "\u0120Merry": 29309, "\u0120communists": 41633, "\u0120tendencies": 27109, "\u0120Manip": 27420, "\u0120criticised": 9923, "DB": 10842, "andom": 46861, "oys": 15093, "property": 41723, "\u0120Nikki": 15141, "\u0120goes": 1411, "\u0120reincarn": 43792, "\u0120amassed": 21812, "vor": 23690, "hend": 21150, "\u0120bring": 836, "\u0120Patterns": 46582, "_": 1215, "\u0120nud": 28569, "\u0120extermin": 43191, "\u0120residual": 30848, "\u0120PIN": 34182, "\u0120books": 2799, "\u0120securely": 31328, "CAST": 40549, "kinson": 34924, "\u0120costume": 12111, "\u0120Sask": 15531, "\u0120Woody": 23561, "\u0120furn": 31199, "kn": 15204, "\u0120Flames": 15700, "\u00c3\u00a3": 17682, "\u0120Denmark": 10060, "usions": 26841, "\u0120couldn": 1705, "\u0120adding": 1271, "\u0120minions": 44461, "arge": 16347, "\u0120Rac": 14822, "llan": 30351, "ceived": 31597, "\u0120genders": 36231, "\u0120ec": 20508, "\u0120reading": 2600, "\u0120squid": 40619, "\u0120conceded": 11508, "\u0120Loss": 19700, "720": 29721, "hl": 11639, "\u0120leases": 18358, "\u0120Dwell": 45515, "Mrs": 36176, "\u0120sidewalk": 15032, "\u0120Mex": 37470, "\u0120reforming": 31447, "\u0120pornography": 15570, "monkey": 45384, "\u0120worker": 5015, "\u0120impat": 43635, "\u0120inev": 42153, "\u0120Cotton": 15416, "\u0120Mary": 2708, "\u0120terms": 1110, "\u0120derogatory": 30971, "\u0120subsection": 45845, "\u0120trespass": 35619, "\u0120doubtless": 44261, "\u0120restart": 12721, "\u0120Kazakhstan": 17983, "\u0120chest": 7050, "\u0120Margaret": 10488, "\u0120foothold": 28264, "\u0120Women": 2691, "\u0120enormous": 7934, "\u0120bent": 18822, "\u0120involved": 963, "\u0120exceeded": 13009, "\u0120laughable": 38677, "\u0120Assist": 31070, "\u0120Contracts": 40989, "\u0120hire": 6198, "\u0120sliced": 21406, "required": 44240, "\u0120deprecated": 48500, "\u0120murd": 48528, "\u0120strengths": 13348, "ounced": 20155, "Wo": 44055, "\u0120mutated": 44436, "\u0120Pittsburgh": 4386, "IF": 7025, "\u0120generosity": 19501, "\u0120heartfelt": 21844, "\u0120molded": 41337, "Beyond": 36971, "264": 29137, "\u0120hikers": 33135, "porary": 42023, "\u0120Osw": 38319, "\u0120embed": 33183, "\u0120stores": 2326, "\u0120auditory": 44630, "\u0120resting": 18403, "ael": 11089, "onday": 46328, "posing": 29105, "omaly": 47290, "inel": 16653, "hist": 32001, "\u0120ul": 17589, "ESA": 32416, "\u0120mosque": 12958, "ings": 1033, "sha": 25410, "\u0120northwest": 9815, "fan": 19302, "Unix": 49532, "\u0120atheist": 41567, "ien": 2495, "\u0120abolition": 34117, "\u0120achieves": 35499, "\u0120independently": 12672, "\u0120initials": 33723, "\u0120Sparks": 22320, "\u0120328": 37428, "Australia": 25533, "\u00e9\u0143\u0136": 49984, "\u0120socioeconomic": 33314, "berg": 2865, "vier": 33931, "\u0120sick": 4736, "inging": 19384, "\u0120292": 37299, "lvl": 49793, "\u0120Chong": 25932, "\u0120paws": 40844, "\u0120Kay": 7120, "ayette": 19283, "annah": 25984, "\u0120simplest": 31625, "working": 10733, "\u0120eBook": 46326, "Phys": 43827, "HD": 13022, "\u0120Maurit": 26214, "\u0120smashing": 24993, "ynthesis": 43122, "enery": 37897, "his": 12724, "\u0120proficient": 36216, "arma": 15277, "\u0120Prosecutor": 13992, "\u0120SER": 28408, "\u0120decrypt": 45886, "antage": 34237, "han": 4134, "545": 36751, "\u0120algorith": 43448, "\u0120longevity": 23610, "Sh": 3609, "\u0120foreigners": 13555, "closure": 26085, "\u0120Butler": 7276, "erers": 16885, "\u0120Weapons": 28054, "register": 29662, "\u0120decriminal": 33926, "\u0120Jord": 18340, "\u0120compressor": 41698, "\u0120ACLU": 18676, "\u0120personality": 6718, "wards": 17337, "\u0120seeing": 1782, "\u012054": 4431, "archs": 29131, "\u0120antidote": 35267, "\u0120doors": 4259, "billion": 9026, "\u0120foil": 25114, "\u0120fired": 2277, "\u0120sprite": 48374, "atta": 10460, "\u0120overfl": 41031, "\u0120Herald": 8521, "\u0120interventions": 15985, "\u0120Subject": 36994, "\u00e5\u00be": 48412, "\u0120willing": 2882, "\u0120seriously": 3640, "\u0120Gaal": 37805, "rued": 41370, "\u0120criticizing": 18384, "\u0120Widow": 40372, "\u0120Bradford": 14259, "terms": 22091, "\u00c8": 6163, "\u0120Despair": 47786, "\u0120Juliet": 21432, "\u0120L": 226, "\u0120temperature": 5181, "\u0120ply": 31329, "\u0120374": 42309, "\u0120lands": 8952, "iotic": 26842, "Vaults": 49912, "lore": 44535, "\u0120Dag": 27934, "\u0120Parks": 8938, "ocy": 30321, "\u0120desired": 12762, "AY": 2547, "\u0120Wizard": 31893, "\u0120transc": 27472, "\u00e3\u0127\u012d\u00e3\u0127\u012d": 49865, "ocaust": 43328, "alls": 12019, "annel": 28189, "\u0120interception": 11949, "oder": 15362, "\u0120Survival": 35854, "\u0120unlocking": 33653, "\u0120culminating": 29681, "izontal": 41539, "results": 38547, "\u0120Basically": 23381, "\u0120dr": 12402, "Mach": 45971, "\u0120pointless": 31321, "\u0120criminality": 35322, "\u0120WS": 18483, "\u0120Dek": 33519, "Three": 15622, "hoe": 23712, "\u0120inund": 23205, "\u0120Apostles": 45805, "ssh": 47833, "\u0120Supplement": 44484, "ern": 3281, "arenthood": 40532, "\u0120mush": 39589, "\u0120Vista": 13737, "\u0120Lin": 9252, "\u0120third": 371, "\u0120nons": 43423, "\u0120Fischer": 20942, "\u0120Invaders": 47103, "\u0120Salary": 39667, "\u0120painful": 8661, "\u0120Tanaka": 30539, "\u0120nat": 23577, "\u0120invari": 48375, "\u0120Worm": 40800, "\u0120observ": 20717, "\u0120Liquid": 20785, "scope": 39576, "verse": 15189, "\u0120mock": 16177, "\u0120lux": 30847, "047": 41782, "\u0120RNC": 36351, "\u0120Winnipeg": 10123, "\u0120prohibitions": 42982, "\u0120epoch": 43660, "hatt": 16001, "\u0120inflammatory": 23785, "580": 31663, "\u0120concurrent": 36099, "\u0120unprepared": 35578, "\u0120Nin": 17450, "\u0120Ludwig": 32861, "\u0120Nep": 27139, "\u0120flow": 3041, "\u0120Ghost": 19942, "\u0120incompet": 47219, "\u0120tape": 7898, "\u0120discrep": 49348, "\u0120use": 304, "\u0120regimes": 25549, "\u0120comr": 49616, "\u0120remake": 21280, "\u0120Times": 1513, "\u0120Darrell": 25926, "Kids": 32180, "\u0120smartphone": 4368, "\u0120Ext": 19188, "\u0120Dealer": 35298, "\u0120taking": 602, "\u0120Gloves": 42858, "\u0120home": 184, "\u0120Typically": 18410, "IBLE": 32525, "\u0120Daniel": 3028, "rones": 30133, "\u0120Churchill": 16930, "OTHER": 30991, "ORS": 18347, "\u0120facial": 11560, "ATER": 20106, "\u0120Valve": 34598, "ush": 3810, "\u0120eventually": 2140, "abus": 37039, "\u0120slam": 11977, "\u0120upheld": 14817, "\u0120Authors": 40090, "\u0120Fur": 20376, "\u0120tanks": 12039, "\u0120sects": 45202, "ilion": 28396, "\u0120endurance": 25160, "urtles": 48966, "\u0120radial": 45174, "\u0120Compact": 34075, "Jack": 20907, "\u0120predominantly": 15351, "\u0120posterior": 41834, "\u0120Bav": 22662, "\u0120Gus": 23325, "clusively": 39830, "\u0120footwear": 19819, "Without": 20867, "\u0120accountant": 24408, "\u00c3\u00a8": 8025, "smart": 22914, "Rah": 33908, "\u0120Freddie": 13220, "\u0120core": 2731, "\u0120Barb": 12897, "Still": 31133, "\u0120Desmond": 24273, "\u0120mamm": 32751, "gage": 42307, "\u0120rejo": 24586, "ppo": 38648, "\u0120adds": 3639, "Ing": 41702, "\u0120Ig": 14879, "\u0120waited": 9010, "pects": 31084, "\u0120Clifford": 20791, "pure": 38627, "\u0120amazing": 2770, "\u0120lion": 15587, "\u0120Pelicans": 17168, "\u00e9\u00be\u012f": 49873, "\u0120Carol": 9347, "\u0120Decay": 45251, "\u0120sexually": 5912, "980": 36824, "\u0120105": 11061, "public": 15110, "\u0120Klux": 33373, "\u0120Nevada": 5077, "Ark": 41441, "\u0120Dent": 27461, "\u0120young": 664, "\u0120winners": 4251, "\u0120Near": 15729, "\u0120teammate": 8351, "\u0120draining": 29584, "\u0120mini": 7983, "\u0120charger": 27362, "yards": 17230, "\u0120Owens": 11922, "\u0120base": 1542, "\u0120Game": 2436, "yre": 15974, "\u0120Tata": 14430, "\u0120Bri": 14508, "\u0120tal": 15079, "\u0120Answers": 41034, "escent": 42473, "\u0120Xbox": 10444, "\u0120sculpt": 21546, "\u0120overl": 31669, "\u0120NHS": 8681, "\u0120Care": 3800, "\u0120Kok": 23623, "essert": 38979, "\u0120Sprite": 46590, "\u0120254": 35381, "Ken": 28524, "elist": 47536, "\u0120Personnel": 32210, "\u0120appet": 24959, "\u0120cherish": 28432, "utterstock": 21102, "eanor": 45972, "\u00c2\u00a2": 18812, "\u0120Australia": 1221, "\u0120119": 16491, "ibi": 17310, "\u0120swipe": 21322, "\u0120damning": 28710, "\u0120Enlight": 47014, "\u0120CPUs": 39076, "\u0120Corps": 8848, "\u0120gritty": 27846, "\u0120strongest": 8260, "\u0120scrolls": 45726, "\u0120rewriting": 40857, "ashi": 11786, "\u00c5\u00ab": 41757, "\u0120migrant": 10822, "\u0120heel": 19728, "\u0120anthropology": 41606, "\u0120lookup": 47938, "\u0120nomine": 49467, "\u0120happened": 1102, "\u0120negatively": 15708, "\u0120lazy": 22414, "\u0120partners": 2567, "ips": 7418, "TERN": 37683, "\u0120Writing": 8123, "umping": 14672, "\u0120Tend": 26080, "\u0120solicitor": 27581, "URN": 28267, "css": 48408, "\u0120frontier": 21204, "ICT": 12894, "acceptable": 32047, "\u0120respectfully": 32928, "enez": 16411, "\u0120Candy": 25575, "\u0120Clover": 32504, "ch": 611, "\u00e2\u013a\u0127\u00e2\u013a\u0127": 42682, "innacle": 30926, "\u0120hesitant": 24668, "\u0120directed": 3660, "\u0120adjusting": 18624, "\u0120silicon": 28630, "\u0120sd": 46409, "fell": 17195, "\u0142": 21402, "\u0120subsequently": 8960, "Recently": 38386, "\u0120gesture": 12433, "profit": 7699, "\u0120Products": 9467, "Contact": 43354, "edo": 26265, "\u0120Defendants": 38153, "\u0120GitHub": 39097, "Sol": 39524, "\u0120Sharing": 24277, "\u0120nutrients": 20012, "\u0120pagan": 43571, "itized": 37174, "\u0120logistical": 25994, "Variable": 49029, "\u0120apparatus": 26529, "\u0120evacuate": 15013, "Wa": 38065, "\u0120Petty": 18867, "\u0120Koen": 32286, "Completed": 49324, "\u0120civilizations": 43054, "ivably": 40548, "Part": 4741, "\u0120unwillingness": 36903, "\u0120bra": 11689, "\u0120Hawkins": 15633, "\u0120Trop": 33660, "Recommended": 48641, "\u0120probability": 18102, "essors": 43592, "\u0120Pan": 5302, "\u00e3\u0124\u00b6": 49751, "\u0120celebrates": 8409, "oen": 18057, "Animation": 48761, "Bloomberg": 35450, "\u0120string": 6755, "ounces": 24744, "\u0120Recommended": 16172, "\u0120tob": 45510, "\u0120earthqu": 49857, "\u0120globalization": 31478, "\u0120spots": 5284, "np": 44976, "Na": 30612, "\u0120raises": 7700, "\u0120required": 1552, "\u0120buildings": 3413, "\u0120metaph": 41724, "\u0120HRC": 43204, "Opt": 36542, "ubby": 35783, "adobe": 48952, "juven": 45257, "\u0120enforced": 17910, "\u0120diabetic": 33560, "Syn": 46437, "\u0120Bristol": 10600, "\u0120Rohingya": 10407, "ARA": 19142, "\u0120nations": 3949, "\u0120Guam": 18798, "\u0120AMC": 19939, "\u0120195": 22871, "\u00e3\u0123\u00a8": 48281, "\u0120img": 48599, "\u0120Brief": 14201, "\u00e7\u012b": 48964, "\u0120discs": 34634, "\u0120aiding": 26616, "\u0120DX": 32172, "\u0120deleg": 25112, "\u0120Zoro": 47283, "now": 8310, "\u00e2\u0122\u00b2": 33533, "\u0120Pepe": 35711, "\u0120Miguel": 12450, "wra": 38610, "assadors": 39876, "\u0120emptied": 35371, "\u00e2\u0122\u0136\u00e2\u0122\u0136\u00e2\u0122\u0136\u00e2\u0122\u0136\u00e2\u0122\u0136\u00e2\u0122\u0136\u00e2\u0122\u0136\u00e2\u0122\u0136\u00e2\u0122\u0136\u00e2\u0122\u0136\u00e2\u0122\u0136\u00e2\u0122\u0136\u00e2\u0122\u0136\u00e2\u0122\u0136\u00e2\u0122\u0136\u00e2\u0122\u0136": 45437, "meaning": 24872, "\u0120plastics": 19532, "\u0120canv": 26550, "agement": 19660, "\u0120wounded": 5424, "respective": 45160, "\u0120Oro": 14689, "\u0120battles": 9531, "\u0120repercussions": 24147, "\u0120recharge": 25850, "Italian": 39251, "\u0120Authentication": 46629, "\u0120Reve": 23000, "\u0120bandwagon": 34438, "\u0120saga": 17466, "\u0120preschool": 23188, "\u0120Furn": 22291, "\u0120wire": 8869, "\u0120unequivocally": 33805, "IPP": 33950, "\u0120predomin": 40615, "\u0120bundle": 19489, "\u0120truth": 3157, "FIX": 47787, "\u0120529": 37822, "\u0120Harrington": 25695, "\u0120traction": 14443, "particip": 42038, "\u0120daemon": 48448, "Scient": 46300, "\u0120aggressively": 11907, "\u0120emerged": 4373, "Georgia": 39331, "\u0120Unicorn": 42240, "\u0120culinary": 16820, "\u0120rugged": 21937, "ounce": 15810, "ossier": 38746, "42": 3714, "\u0120Morris": 6227, "itive": 15589, "\u0120intest": 40994, "\u0120Being": 8374, "Pa": 28058, "\u0120since": 187, "cot": 22921, "ilian": 35373, "rec": 13139, "\u0120Eur": 20939, "\u0120subsidized": 28397, "\u012019": 753, "1977": 44423, "sup": 35901, "\u0120Mahjong": 48867, "je": 2359, "\u0120punitive": 21987, "lys": 32142, "&": 947, "wegian": 45618, "\u0120potency": 39439, "Commerce": 31796, "Wonder": 33378, "\u0120Ad": 1614, "\u0120Accessed": 47244, "\u0120shares": 327, "\u0120categ": 42881, "\u01201999": 6193, "Must": 41033, "incarn": 48910, "aber": 31810, "\u0120unsatisf": 36010, "\u0120Comparison": 37070, "\u0120contemporary": 8708, "\u0120cottage": 25971, "\u0120robe": 36393, "\u0120hamm": 36212, "\u0120Warrant": 36732, "arkin": 26932, "\u0120Sector": 15816, "\u0120hockey": 5006, "\u0120sticking": 11752, "tions": 31291, "anges": 33094, "\u0120admits": 9113, "\u0120monumental": 25437, "Development": 45297, "\u0120mitigating": 31904, "thur": 42864, "\u0120\u00c2\u00bd": 18430, "student": 34935, "\u0120laund": 35564, "\u0120loophole": 30640, "703": 37106, "OST": 13556, "\u0120Hung": 29604, "\u0120elegant": 14878, "nostic": 40997, "Shin": 47086, "ening": 4226, "ocard": 43682, "riter": 37124, "\u0120advoc": 48471, "eal": 18696, "\u012030": 389, "ermanent": 47958, "\u0120404": 37014, "\u0120Bow": 9552, "\u01209000": 43420, "\u0120compensated": 25428, "brance": 27517, "\u0120offensively": 19688, "\u0120Quinn": 10587, "params": 49237, "\u0120num": 15009, "\u0120Qing": 34446, "\u0120Charg": 22978, "\u0120Anime": 44277, "Amy": 38646, "IES": 7536, "nl": 35760, "cipl": 40146, "\u0120mystery": 9001, "\u0120eyes": 2473, "front": 9289, "\u0120adjunct": 36038, "\u0120Tw": 9922, "\u0120joked": 11494, "\u0120populace": 36921, "\u0120go": 213, "\u0120Fried": 20883, "ool": 8110, "\u0120Merlin": 38445, "\u0120Rodgers": 9122, "othal": 49180, "\u0120compare": 8933, "\u0120website": 998, "\u0120destined": 19083, "\u0120spiral": 21300, "ienne": 21302, "\u0120abdom": 47585, "Islam": 23239, "affiliated": 33586, "\u0120augmented": 21621, "\u0120socialists": 42371, "Uh": 42903, "\u0120misfortune": 38779, "atibility": 46318, "\u0120buffet": 25774, "\u0120Tenn": 10797, "hill": 9583, "\u0120enjoyable": 18260, "\u0120Photos": 10878, "370": 21713, "\u0120\u00d8\u00a7\u00d9\u0126": 32681, "ute": 4467, "\u0120banter": 32723, "\u0120suspending": 25462, "POSE": 47500, "great": 12338, "linked": 16166, "imb": 16231, "\u0120Northwest": 8535, "xus": 47353, "forcer": 39727, "ote": 6457, "\u0120devastation": 19591, "\u0120Fortune": 15938, "\u0120Jaune": 49194, "\u0120AFL": 16305, "\u00c3\u0142": 5269, "osi": 15879, "os": 366, "azi": 12934, "\u0120polluted": 30002, "meric": 30998, "\u0120Journalism": 25366, "akespe": 47455, "Ct": 47413, "\u0120totem": 45197, "ovie": 42937, "\u0120Organic": 24349, "plate": 29098, "cel": 9736, "piracy": 40780, "\u0120Program": 4928, "\u0120Uran": 32128, "\u0120courier": 37171, "\u0120density": 16522, "Internet": 40622, "arta": 28721, "hesda": 48492, "\u0120reduce": 1888, "\u0120fins": 40863, "\u0120rains": 10863, "traditional": 30172, "\u0120dream": 3366, "\u0120towed": 31148, "\u0120agreed": 1507, "\u0120comfortably": 15995, "\u0120catches": 8758, "\u0120selective": 21921, "\u0120ecosystems": 24843, "\u00e1\u00bd": 49640, "rad": 7822, "INTON": 43786, "atched": 27407, "\u0120Grill": 15697, "\u0120based": 716, "bledon": 9514, "\u0120scholars": 18118, "\u0120Phone": 12091, "\u0120Manson": 23445, "ati": 3648, "\u0120Central": 1505, "\u0120warfare": 18962, "grades": 25579, "\u0120PubMed": 48851, "\u0120something": 402, "\u0120groundwork": 27615, "\u0120Harrison": 7287, "\u0120Monaco": 12696, "\u0120mayor": 3647, "\u0120eleg": 35708, "\u0120sizeof": 49907, "\u0120quarterbacks": 11811, "\u00a9\u00b6\u00e6\u00a5\u00b5": 50083, "\u0120\u00c2\u00a7": 39207, "arkable": 36774, "\u0120adjud": 25536, "Beginning": 46229, "\u0120frameworks": 32480, "\u0120Nintendo": 10396, "\u0120176": 28558, "\u0120malice": 39625, "\u0120Road": 1214, "\u0120Located": 21404, "\u0120clause": 13166, "\u0120gravitational": 34217, "\u0120ak": 18735, "\u0120hostility": 22069, "\u0120ii": 42661, "\u0120Worse": 32650, "\u0120telecommunications": 15601, "\u0120msec": 49845, "\u0120autism": 15080, "\u0120Prel": 26449, "Setup": 49398, "\u0120Vulcan": 38640, "Multiple": 43253, "\u0120corrid": 48649, "Async": 49636, "\u0120shipping": 6738, "alt": 3967, "\u0120cord": 13051, "\u0120Fiji": 19824, "\u0120Uncle": 25848, "\u0120containing": 8200, "ystem": 37693, "Arm": 40414, "\u0120apartheid": 25329, "\u0120Hil": 14909, "utorial": 48960, "\u0120GABA": 47644, "\u0120rumours": 12021, "Ever": 27172, "rocal": 46966, "erey": 16916, "amin": 13941, "iflower": 35051, "\u0120carve": 26568, "\u0120CLE": 25511, "acterial": 40079, "\u0120Yao": 38748, "\u0120Chaos": 38122, "\u0120Telecom": 15262, "\u0120politely": 33615, "\u0120despised": 43396, "1988": 42853, "\u0120Winning": 21982, "\u0120Justice": 1659, "amine": 19565, "\u0120Coins": 45069, "ages": 3443, "pd": 10398, "\u0120accessory": 21883, "\u0120Miner": 20710, "dit": 33307, "ind": 2028, "arranted": 34193, "\u0120Physical": 23831, "956": 41632, "\u0120Hindi": 19840, "sted": 16460, "\u0120enhances": 27460, "\u0120transcription": 37118, "136": 25966, "\u0120Par": 2884, "cv": 38635, "aza": 11868, "\u0120THC": 29558, "\u0120redeem": 24670, "\u0120Browser": 45227, "eder": 11736, "Room": 41136, "\u0120compan": 40005, "\u0120Purdue": 15824, "\u0120contraceptives": 41272, "\u0120h": 1368, "\u0120cheering": 16765, "\u0120wiret": 30537, "\u0120vividly": 36607, "\u0120Lennon": 23563, "ripp": 22872, "\u0120hairc": 39799, "\u0120usually": 2333, "att": 2611, "John": 10567, "uba": 10452, "\u0120Fernando": 12615, "ilitating": 41160, "\u0120rosters": 31096, "\u0120Cind": 44251, "TEXTURE": 50064, "363": 34401, "oust": 17778, "\u0120aloud": 31205, "\u0120loudspe": 37459, "\u0120elephant": 18274, "ms": 4339, "\u00e3\u0123\u0128": 48718, "\u0120drank": 24313, "\u0120immortality": 45075, "uro": 7367, "\u0120labyrinth": 41497, "clair": 31238, "ouver": 45624, "\u0120remarked": 18767, "shake": 41820, "\u0120spike": 12490, "zzle": 26216, "\u0120RTX": 40810, "\u0120landfill": 21289, "\u0120Omni": 37899, "utsche": 35816, "\u00e1": 1376, "frey": 16127, "ornia": 43052, "factor": 31192, "\u0120Archbishop": 19486, "\u0120Break": 13211, "\u0120Alpine": 22801, "dem": 12789, "uggage": 46364, "\u0120municipal": 8185, "ammed": 21639, "\u0120Bowen": 23147, "ANS": 6557, "Town": 33528, "\u0120conventions": 27712, "\u0120STR": 20857, "\u0120FROM": 11974, "\u0120Chapters": 44236, "\u00e3\u0123\u0137": 49173, "Inc": 34366, "\u0120transpired": 31827, "\u0120crippled": 30944, "ba": 3178, "\u0120Canaver": 48595, "bern": 27598, "\u0120fals": 22461, "\u0120roots": 8121, "lc": 45071, "\u0120imitate": 41379, "Command": 46785, "\u0120currently": 855, "\u0120primed": 32575, "keepers": 15214, "\u0120superiority": 32951, "\u0120DH": 21391, "\u0120struct": 29916, "painted": 34843, "Carl": 22591, "\u0120Nab": 26984, "\u0120ardent": 34085, "\u0120nominal": 26255, "\u0120footprints": 35372, "incre": 33008, "\u0120renamed": 23469, "iolet": 41790, "\u0120Guilty": 42526, "gart": 22739, "\u0120appearances": 4961, "\u00a1": 5543, "\u0120Sa": 4141, "\u0120Andreas": 19494, "\u0120\u00e2\u013e": 36174, "\u0120fires": 6155, "\u0120436": 43319, "\u0120adv": 34369, "\u0120organizational": 20973, "tags": 35103, "\u0120Stories": 9739, "\u0120Witnesses": 18036, "\u0120ranging": 6272, "orus": 27741, "\u0120bullish": 12115, "ellen": 12128, "\u0120Harbaugh": 22083, "rol": 9396, "\u0120Including": 12526, "\u0120restitution": 26783, "\u00ce\u00b2": 47328, "\u0120Sorcerer": 47533, "\u012015": 379, "\u0120Reconstruction": 35411, "\u0120ingredients": 7075, "\u0120Merch": 41013, "\u0120coordin": 31481, "\u0120magnitude": 11259, "\u0120responsibilities": 9582, "\u0120Pt": 42191, "\u0120Jordanian": 32572, "\u0120indie": 18572, "ItemTracker": 50251, "although": 24648, "\u0120Account": 16036, "\u0120Shows": 28677, "\u0120prone": 16292, "\u0120eloqu": 33472, "beit": 23274, "024": 40044, "\u0120College": 1821, "kk": 27762, "\u0120rim": 17239, "alph": 40812, "\u0120shed": 7722, "\u0120dice": 23819, "\u0120tall": 6764, "\u0120phosphorus": 41095, "mess": 38177, "\u0120Signal": 27695, "\u0120Dan": 2503, "\u0120factions": 17954, "\u00d0\u00b4": 37947, "\u0120Kelvin": 27073, "\u0120joystick": 46135, "\u0120Gil": 8205, "\u0120localized": 35668, "life": 5367, "sl": 9996, "\u0120conversations": 5475, "\u0120happiness": 11098, "ipient": 44392, "\u0120Newt": 36997, "\u0120cuc": 29017, "empt": 15318, "\u0120Dirk": 30396, "\u0120Russo": 26479, "\u0120leap": 12863, "\u0120Theresa": 6188, "\u0120FY": 9878, "\u0120Claude": 24575, "oston": 40415, "\u0120failure": 2988, "\u0120requisite": 30665, "\u0120prospects": 5108, "\u0120respond": 2519, "endez": 22192, "rompt": 47170, "\u0120pissed": 34449, "\u0120Ny": 8606, "rim": 6103, "\u0120grain": 10924, "iamond": 44318, "erd": 25902, "sex": 8821, "\u00f2": 50096, "\u0120meth": 17677, "\u0120yours": 14314, "\u0120unleashed": 19128, "\u0120fielded": 24912, "\u0120elves": 42838, "icating": 13659, "intend": 24656, "\u0120neutrality": 18755, "\u0120pineapple": 33336, "ARCH": 42499, "\u0120NSA": 19711, "\u0120AN": 5102, "\u0120linem": 43646, "\u0120paras": 39944, "\u0120emission": 22679, "\u0120external": 6731, "rival": 27978, "\u0120drafts": 28233, "\u0120Lucius": 46752, "\u0120cooper": 20105, "\u0120medicinal": 27376, "\u0120confession": 23599, "\u0120Yuk": 21709, "\u0120Protein": 34786, "\u0120Burma": 35044, "frame": 26061, "075": 36754, "\u0120truths": 30079, "\u0120divisive": 16067, "\u0120NVIDIA": 31146, "\u0120cull": 29044, "\u0120DOJ": 19984, "find": 26559, "\u0120smelling": 39925, "\u0120sket": 43577, "\u0120Nuclear": 16909, "Pear": 42933, "\u0120patrols": 20315, "\u0120evolves": 36198, "\u0120Silence": 33992, "\u0120Dunk": 17933, "\u0120rays": 28496, "\u0120780": 37866, "Recent": 39936, "\u0120Wheat": 22781, "\u0120tragedies": 28090, "\u0120Briggs": 28637, "\u0120handshake": 31142, "\u0120shouted": 15355, "\u0120slavery": 14767, "Conn": 19730, "\u0120agriculture": 6300, "34": 3079, "\u0120Seconds": 37789, "ratch": 38406, "ulse": 32767, "Living": 38043, "\u0120ceasefire": 13983, "\u0120simplify": 24778, "chn": 13212, "\u0120Theatre": 5132, "imir": 32850, "rd": 2586, "arters": 40758, "\u0120Dre": 19549, "\u0120richest": 16386, "\u0120JPMorgan": 9934, "\u0120Det": 11185, "\u01202020": 2760, "aho": 30257, "\u0120Ortiz": 17585, "\u0120liver": 12581, "ilateral": 16908, "omical": 40421, "Fast": 35515, "\u0120booklet": 39521, "\u0120measurement": 20104, "Voice": 36294, "\u0120sucking": 37907, "\u0120Minor": 21315, "Detailed": 48275, "040": 36016, "atican": 47474, "\u0120gods": 25779, "gif": 47324, "vin": 6320, "\u0120discrim": 40846, "ess": 3361, "\u0120reflect": 4227, "\u0120estates": 30797, "\u0120Wikipedia": 28274, "ocamp": 48137, "\u0120Treaty": 20704, "\u0120SK": 14795, "\u0120supervisors": 19971, "\u0120Cosmetic": 43549, "\u0120mud": 10511, "\u0120package": 3737, "\u0120Hunting": 30709, "\u0120dissect": 33562, "\u0120remorse": 23312, "idespread": 38327, "\u0120medication": 8456, "\"'": 46150, "\u0120Known": 21575, "ships": 31404, "\u0120Terms": 20374, "\u0120Muslim": 3346, "SHA": 45004, "mone": 28913, "\u0120fraught": 25481, "\u0120lifetime": 7370, "\u0120X": 1577, "\u0120bits": 15239, "Asset": 45733, "\u0120Barn": 8514, "GG": 24592, "\u0120trilogy": 26105, "\u0120realms": 41653, "YES": 41010, "\u0120compound": 10624, "\u0120Proper": 39171, "imore": 28545, "\u0120Building": 6919, "\u0120signific": 40042, "\u0120Ichigo": 49395, "\u0120thankful": 12025, "\u0120project": 695, "\u0120admitting": 13874, "\u0120||": 45056, "ifying": 4945, "\u0120dubbed": 9260, "\u0120Founding": 37884, "\u0120Bayer": 20799, "\u0120rampage": 22944, "Mech": 46063, "\u0120sane": 37091, "ames": 12336, "\u0120volunt": 43763, "\u0120fertile": 31351, "\u0120irritated": 35270, "ourning": 46269, "\u0120Actor": 11848, "\u0120Elephant": 36516, "\u0120shr": 15383, "\u0120Harden": 17760, "\u0120Yah": 28265, "\u0120holistic": 23015, "\u0120libraries": 18146, "\u0120advancement": 19026, "\u0120Intermediate": 22167, "\u0120vinegar": 25271, "yi": 28831, "ume": 9271, "\u0120Sho": 17411, "arus": 42292, "\u0120Jindal": 39520, "\u0120antip": 37554, "\u0120isolated": 8067, "\u0120MI": 10931, "iance": 9862, "atures": 15488, "\u0120770": 39570, "\u0120Crush": 40016, "\u0120concent": 28289, "\u0120emotionally": 13582, "Getting": 28750, "Plus": 27576, "\u0120Clause": 36913, "\u0120Athletic": 8899, "\u0120judgement": 17219, "\u0120iss": 46682, "\u0120irregular": 22937, "\u0120inspectors": 17277, "\u0120secession": 29634, "\u0120impose": 7828, "Scot": 42565, "\u0120Planetary": 43295, "\u0120vivo": 43486, "lash": 42044, "\u0120clutch": 18210, "\u0120IDE": 44982, "Tile": 48821, "amps": 9782, "\u0120363": 40801, "\u0120tr": 2664, "packs": 26867, "Tags": 49181, "\u0120accomplishments": 15052, "Title": 46525, "\u0120muc": 38791, "\u0120result": 898, "\u0120commit": 6225, "\u0120Frie": 47297, "\u0120herds": 19837, "Daddy": 36009, "\u0120resize": 47737, "Flags": 48167, "\u0120assert": 18088, "DES": 40429, "\u0120aboard": 10009, "\u0120\u00cf\u0126": 48353, "\u0120though": 600, "\u0120OWN": 40375, "south": 25515, "ampoo": 44864, "ALD": 34791, "\u0120TODAY": 6733, "\u0120width": 22523, "\u0120Fah": 21666, "\u0120cinema": 11605, "\u0120whatsoever": 14778, "\u0120fantas": 41069, "\u0120And": 178, "compliance": 33182, "\u0120regional": 2174, "\u0120aluminium": 18051, "\u0120hemp": 23095, "usha": 34780, "\u0120Unlock": 43076, "\u0120Conf": 10303, "ecd": 48510, "atters": 30753, "acus": 40896, "\u0120traps": 25583, "VIS": 23111, "\u0120youngsters": 13692, "\u0120gir": 25650, "413": 36108, "\u0120Leafs": 12931, "\u0120combined": 2771, "ensibly": 46598, "nr": 37643, "\u0120Broken": 28660, "516": 38960, "\u0120Bank": 788, "\u0120prophe": 45648, "\u0120resolves": 41913, "\u0120survive": 6008, "575": 28839, "\u0120inputs": 16584, "\u00d8": 21593, "ID": 2688, "significant": 18880, "Param": 48348, "\u0120storylines": 29984, "onso": 25914, "\u0120pur": 9695, "\u0120trending": 14179, "Usage": 49270, "\u0120HOL": 38364, "\u0120Specialist": 26159, "\u0120lowly": 34666, "\u0120dialect": 37508, "\u0120Africa": 1327, "\u0120weight": 2408, "\u0120ko": 12546, "\u0120vibrations": 39074, "Ryan": 23287, "\u0120Randall": 16222, "\u0120downright": 28686, "\u0120intu": 46569, "\u0120collective": 6981, "\u0120breadth": 24135, "\u0120indoctr": 40920, "\u0120Sat": 8918, "\u0120Serge": 29732, "\u0120Melania": 12305, "523": 39864, "\u0120never": 393, "committee": 41328, "\u0120probing": 24097, "\u0120invitation": 10021, "udd": 7027, "immer": 15912, "\u0120chore": 14480, "\u0120Novel": 36338, "iso": 16845, "ractical": 47708, "\u0120FR": 7136, "Years": 43937, "\u0120Till": 15628, "\u0120Rainbow": 22060, "\u0120gays": 34936, "running": 12364, "oit": 21058, "\u0120MSI": 41867, "\u0120synaptic": 47621, "450": 13872, "\u0120salient": 41159, "\u0120Checks": 41769, "ynam": 39116, "\u0120burden": 6976, "\u0120headers": 42211, "campaign": 37532, "\u0120gol": 18190, "danger": 29651, "\u0120tunnel": 10615, "\u0120redemption": 21772, "\u0120Claus": 21010, "\u00cd": 48254, "\u0120turnover": 10119, "\u0120be": 28, "oop": 18042, "\u0120believed": 2047, "\u0120Supported": 42155, "\u0120thug": 40447, "tap": 34607, "\u0120/": 1589, "\u0120upwards": 19603, "\u0120Bones": 36964, "\u0120populist": 16144, "azor": 39784, "\u0120laws": 2074, "orange": 41964, "\u0120pure": 8309, "\u0120uh": 37463, "\u0120ADV": 38558, "\u0120apost": 39070, "\u0120coron": 34377, "\u0120Mars": 6507, "\u0120expl": 22907, "\u0120expression": 8151, "\u0120hes": 36279, "TL": 22290, "scroll": 47711, "dose": 35238, "\u0120Lancet": 39239, "kins": 7327, "xxxx": 47596, "Miller": 34534, "\u0120Bench": 14203, "\u0120CW": 17660, "Ax": 39884, "\u0120coastline": 23117, "ides": 4376, "\u0120vigorously": 25555, "pha": 44641, "\u0120packets": 30781, "\u0120subtract": 40033, "itu": 15998, "\u0120Received": 45913, "\u0120impede": 32989, "sight": 32764, "\u0120skepticism": 22222, "\u0120better": 357, "\u0120minorities": 12568, "\u0120hires": 22581, "\u0120fails": 10578, "\u0120lines": 2301, "\u0120Ax": 14249, "\u0120chewing": 35053, "fusc": 48996, "\u0120maxim": 21056, "389": 34682, "\u0120scrutiny": 7731, "\u0120Division": 2925, "woman": 7760, "endon": 27609, "\u0120nominee": 6615, "igs": 15409, "\u0120Britain": 1444, "\u0120Kelley": 15662, "\u0120Ada": 33202, "otation": 35915, "?\".": 43012, "\u00ce\u00bc": 47049, "Mac": 17049, "porate": 34044, "\u0120neat": 19427, "ff": 3145, "\u0120SOFTWARE": 46609, "interested": 35471, "\u0120outdoors": 13384, "\u0120captcha": 49157, "\u0120SX": 33040, "retched": 47904, "\u0120Slack": 29124, "colour": 42082, "\u0120angle": 11792, "\u0120Ideas": 32853, "\u0120spor": 38589, "\u0120cycles": 16726, "ales": 4575, "\u0120Associates": 11823, "\u0120Ads": 35461, "\u0120orally": 43016, "\u0120stigmat": 36314, "iliated": 37220, "\u0120wont": 40067, "illes": 22244, "estamp": 48571, "\u0120Bosh": 38973, "ounters": 40915, "\u0120watts": 42574, "\u0120demeanor": 31764, "vik": 29595, "errors": 48487, "\u0120atmosphere": 5466, "\u0120wish": 2813, "\u0120photography": 11075, "gin": 11405, "\u0120Job": 13576, "\u0120siph": 34146, "\u0120Small": 7090, "\u0120Salv": 19511, "\u0120..............": 49739, "\u00e3\u0124\u00ab": 49063, "253": 31184, "\u0120prem": 14366, "esian": 44871, "\u0120menus": 24261, "\u0120latex": 41252, "udi": 24110, "\u0120NK": 35906, "]=": 49659, "\u0120Provider": 31314, "\u0120unspecified": 20022, "\u00e2\u0139": 48555, "\u0120Hills": 4962, "Users": 46110, "ete": 9306, "\u0120Ez": 32050, "\u0120physicist": 33832, "bilt": 44386, "\u0120theat": 21396, "\u0120reflecting": 10811, "vention": 20874, "As": 1620, "\u0120couch": 16433, "\u0120horrend": 48075, "Fit": 30124, "\u0120accidentally": 13636, "\u0120bare": 10905, "ellow": 33796, "\u0120Estate": 9730, "\u0120Oliv": 40885, "\u0120disable": 33022, "\u0120cmd": 49099, "!'": 9376, "\u0120recreate": 27981, "\u0120aggro": 48853, "\u0120kitten": 35292, "\u0120Rum": 13772, "device": 42005, "\u0120Dawson": 14820, "cb": 38133, "\u0120competed": 12393, "\u0120throats": 38726, "\u0120perceived": 9568, "\u0120Kar": 4077, "\u0120cour": 17867, "iment": 8913, "\u0120Unknown": 28283, "\u0120tw": 11901, "\u0120investigative": 13222, "\u0120suspend": 13085, "land": 1245, "\u0120digitally": 25318, "\u0120Ariel": 25586, "\u0120Meter": 35616, "\u0120Carrier": 29276, "\u0120reporters": 1865, "\u0120credited": 11223, "\u0120Fl": 4150, "\u0120Internet": 3742, "1993": 41655, "\u0120chilly": 23141, "\\'": 46495, "ventus": 40722, "abwe": 46938, "ATURES": 46158, "\u0120\u00e2\u0138\u00ba": 26074, "\u0120sake": 12253, "\u0120lasers": 34291, "\u0120Hermione": 45205, "\u0120hopped": 33300, "\u0120family": 284, "reditation": 23890, "\u0120golden": 9030, "Gro": 38033, "Spread": 47174, "\u0120Foods": 8465, "\u0120policy": 714, "Philipp": 35196, "\u0120sweep": 9808, "\u0120Nigeria": 2000, "\u0120connections": 7070, "umbled": 10434, "ser": 12778, "\u0120stalled": 13244, "\u0120Herrera": 19176, "frac": 48877, "avanaugh": 39761, "\u0120stewards": 20832, "\u0120knowingly": 27716, "Shipping": 47598, "Python": 48659, "\u0120unc": 16511, "\u0120Commando": 45870, "ueless": 45844, "\u0120addon": 49305, "poons": 47673, "\u0120Solutions": 7874, "bug": 37148, "1950": 43545, "\u0120Hipp": 35332, "\u0120stripped": 12850, "?).": 37640, "estones": 41878, "irsch": 30993, "98": 5208, "oscope": 31468, "\u0120brewer": 34651, "\u0120absorbs": 41664, "\u0120Rouse": 21613, "\u0120ab": 4091, "fi": 9169, "\u0120conveyed": 25649, "Mark": 10006, "\u0120standalone": 20677, "rw": 43926, "tnc": 49662, "Batman": 43421, "\u0120SpaceX": 14973, "orman": 16803, "\u0120NASCAR": 10591, "eting": 16382, "finals": 7256, "\u0120teenage": 9231, "oris": 26787, "\u0120ignorance": 22092, "ousse": 29955, "\u0120angular": 42970, "odynam": 48009, "\u0120having": 519, "\u0120du": 4279, "\u0120banned": 4968, "Chance": 35272, "Against": 41634, "\u0120breeds": 29441, "\u0120Scythe": 49331, "\u0120Patel": 12717, "\u0120nit": 23737, "Appearances": 49647, "\u0120posit": 36641, "\u0120clinch": 17912, "eware": 41909, "\u0120Woo": 29935, "\u0120foe": 24432, "\u0120Off": 4995, "\u0120councillor": 15559, "\u0120pillow": 26410, "app": 3340, "Jeremy": 37185, "\u0120marketed": 22472, "\u0120Jazeera": 32427, "razy": 36616, "\u0120atoms": 33310, "\u0120rotation": 10134, "\u0120Penn": 5953, "\u0120Jessie": 24520, "\u0120undertaking": 17963, "ranean": 43652, "\u0120steadfast": 25781, "\u0120Feather": 25989, "\u0120Playstation": 44332, "\u0120Headquarters": 23723, "\u0120Tribunal": 21839, "\u0120suspect": 1985, "\u0120translated": 16877, "\u0120hello": 20760, "\u0120veterinarian": 29231, "ready": 16402, "aido": 23759, "CHQ": 43645, "\u0120Nebula": 44846, "\u0120Handler": 41060, "\u0120Apache": 27563, "whatever": 38745, "uffs": 22902, "sheet": 37425, "\u0120lineup": 4451, "\u0120technicians": 17650, "695": 34684, "aples": 48140, "Andy": 32743, "gor": 26084, "\u0120shortly": 3691, "iffin": 31570, "\u0120contro": 33370, "\u0120cute": 11962, "\u0120grains": 19680, "\u012097": 8783, "irth": 24208, "\u0120Caldwell": 18050, "\u0120electors": 41752, "\u0120earn": 4073, "\u0120troops": 3517, "\u0120sear": 38850, "\u0120take": 185, "\u0120coarse": 38667, "\u0120Sigma": 28425, "\u0120reminder": 8306, "\u0120EP": 12995, "\u0120sacr": 44301, "\u0120nec": 42179, "\u0120lenses": 19560, "\u0120phen": 35833, "\u0120feasible": 21798, "STAT": 40106, "22": 2036, "omb": 5223, "Market": 14773, "\u0120Publishing": 25290, "worker": 23589, "\u0120Orth": 31270, "407": 34539, "\u0120spacious": 23975, "\u0120Ryu": 35068, "\u0120Kiw": 21472, "\u0120interested": 2509, "\u0120Titan": 23308, "\u0120triglycer": 45426, "Thumbnail": 48230, "].": 8174, "\u0120mammoth": 28521, "\u0120Collections": 42121, "''.": 41667, "\u0120...": 1666, "represent": 35213, "tained": 43672, "utm": 44992, "Spanish": 41226, "\u0120Booker": 14725, "\u0120neutral": 7974, "\u0120blitz": 23492, "\u0120Article": 6776, "ijuana": 25491, "\u0120Vehicles": 23881, "\u0120tons": 7741, "Circ": 43412, "\u0120aims": 5026, "\u0120disputes": 10794, "VB": 36394, "\u0120electro": 29541, "\u0120valleys": 32342, "\u0120MSG": 39106, "\u0120sophomore": 7307, "lar": 10898, "\u0120enraged": 33415, "\u0120Crusher": 47844, "associated": 38838, "\u0120Shock": 27986, "\u0120condol": 35279, "\u0120serum": 38994, "Virtual": 46138, "heading": 29086, "amus": 24389, "\u0120rapport": 27839, "\u0120witnesses": 6057, "\u0120feed": 3993, "\u0120las": 5573, "\u0120equilibrium": 39342, "\u0120builders": 21043, "373": 34099, "lycer": 47688, "\u0120Alliance": 6035, "\u0120peripheral": 27727, "\u0120Cull": 29169, "\u0120General": 1292, "agate": 32814, "azing": 22736, "\u0120budgets": 11652, "\u0120revolutionary": 16097, "weet": 21210, "\u0120witch": 22048, "\u0120Rai": 20446, "\u0120Bucket": 42766, "\u0120vowel": 48267, "\u0120Spanish": 3453, "Shot": 42684, "\u0120expose": 13595, "feld": 12706, "\u0120Santa": 2005, "Inter": 26267, "APD": 44608, "ranking": 19217, "\u0120Byron": 16086, "bodied": 34104, "\u0120Turk": 19683, ":(": 48329, "\u0120102": 12747, "neath": 43778, "\u0120Dir": 32024, "\u0120downside": 13422, "\u0120splend": 45990, "vir": 28641, "\u0120analogy": 33460, "\u0120combustion": 31620, "\u0120backup": 8010, "\u0120Ethan": 15926, "ml": 18517, "\u0120Arnold": 11816, "Japan": 21318, "original": 34545, "\u0120formations": 28934, "\u0120Euro": 5122, "\u0120embell": 28009, "\u0120survivors": 7149, "actively": 21574, "??": 28749, "\u0120Mitt": 16272, "\u0120adip": 46468, "Draft": 44164, "\u0120HAS": 31963, "\u0120projectile": 43927, "\u0120Brooklyn": 6314, "\u0120Brawl": 46822, "Balt": 44084, "ocado": 40159, "\u0120Neptune": 35072, "\u0120Electronics": 12057, "olesc": 42612, "\u0120bead": 43383, "\u0120section": 2810, "RESULTS": 49043, "computer": 36327, "\u0120postp": 22674, "erence": 24935, "orns": 16248, "\u0120Garcia": 6603, "deg": 28904, "opted": 39735, "\u0120mean": 1266, "\u0120dazzling": 25435, "059": 41873, "\u0120Ends": 40943, "\u0120recl": 28391, "\u0120responses": 8823, "matched": 38331, "\u0120Kejriwal": 26796, "\u0120paddle": 26087, "\u0120verifying": 38088, "\u0120limits": 4971, "lessly": 12445, "\u0120cat": 4758, "\u0120Ble": 16463, "\u0120certainty": 15233, "\u0120bras": 34904, "SHIP": 41201, "\u0120Louis": 3217, "dy": 7180, "filename": 49451, "Kid": 42303, "\u0120Joan": 14557, "\u0120Americas": 11685, "\u0120leak": 9324, "acons": 30267, "\u0120Clown": 35125, "\u0120sacrament": 46228, "\u0120politician": 8676, "\u0120mapping": 20410, "ayan": 10790, "useum": 31093, "\u0120important": 505, "reach": 18645, "hran": 43966, "\u0120explaining": 8926, "\u0120realities": 18831, "\u0120Financial": 2108, "interest": 15979, "lesiastical": 46377, "\u0120Setting": 32048, "\u0120tact": 27844, "\u0120Taiwan": 6951, "\u0120wrap": 10438, "\u0120Lok": 13073, "ciplinary": 35569, "\u0120queries": 22680, "\u0120outwe": 37546, "Germany": 24596, "\u0120annotation": 47760, "ucha": 29782, "\u0120harms": 31532, "\u0120Alm": 32399, "wig": 27328, "\u0120affiliated": 13778, "\u0120overwrite": 48605, "use": 3698, "\u0120scor": 21516, "\u0120cancelled": 8102, "edes": 34567, "\u0120disconnected": 30005, "\u0120Emily": 7770, "\u0120Ars": 17623, "\u0120Fully": 37881, "yellow": 34103, "\u0120quietly": 11034, "\u0120temples": 31168, "\u0120Denis": 16439, "\u0120somebody": 4909, "arton": 24735, "github": 48340, "\u0120care": 575, "aimon": 46723, "NJ": 25471, "Resources": 47057, "\u0120goblin": 48309, "\u00e3\u0125\u00bc\u00e3\u0124\u00af": 49850, "\u0120[[": 48395, "\u0120Jolly": 37997, "ech": 7529, "pron": 26404, "\u0120Hart": 4980, "\u0120confuse": 31643, "\u0120Finger": 30852, "\u0120Hes": 32899, "HUD": 45939, "eson": 21564, "\u0120response": 1263, "\u0120Fool": 10133, "493": 37839, "UNCH": 25311, "\u0120stream": 4615, "isky": 18845, "\u0120tumult": 42372, "\u0120metres": 7472, "ainment": 26741, "\u0120Mediterranean": 11965, "guide": 43415, "\u00e3\u0125\u0129\u00e3\u0124\u00a3": 49815, "\u0120momentum": 4093, "stack": 41590, "436": 38324, "Italy": 37248, "ilot": 20366, "itures": 37529, "\u0120unin": 21969, "\u0120blogger": 21329, "\u0120amongst": 9783, "\u0120Participants": 16693, "\u0120bowel": 29928, "\u0120cigars": 40753, "\u0120ACTIONS": 46120, "\u0120sounding": 23266, "\u0120Exchange": 3080, "olated": 39308, "\u0120hold": 946, "\u0120pick": 1339, "\u0120fireplace": 24672, "\u0120Rosenberg": 29330, "rt": 9713, "\u0120BEN": 32849, "292": 31707, "author": 11515, "986": 40558, ")--": 43564, "\u0120Latin": 5862, "\u0120Kushner": 10552, "\u0120Lindsey": 12149, "Are": 13755, "\u0120few": 367, "green": 12354, "\u0120Ju": 8873, "\u0120transition": 3868, "\u0120Meyer": 11392, "\u0120repet": 41341, "\u0120monopoly": 21445, "\u0120Legs": 45394, "\u0120FIRE": 30049, "lio": 29067, "\u0120Subtle": 46289, "\u0120Rank": 17816, "\u0120entrepreneurial": 21368, "apter": 48575, "\u0120comedian": 10688, "medium": 37661, "\u0120strengthening": 10066, "\u0120Tate": 16255, "\u0120barrier": 9639, "\u0120fict": 48216, "\u0120Icon": 12555, "\u0120waitress": 35698, "\u0120const": 10759, "\u0120loser": 22650, "XP": 29269, "Steel": 41297, "orable": 18911, "\u0120Graph": 20919, "\u0120affili": 36758, "aw": 1584, "\u0120rap": 11619, "\u0120Enforcement": 10406, "letcher": 42795, "\u0120countryside": 19564, "\u0120lockout": 41630, "Isa": 39323, "\u0120Oman": 18302, "azo": 28765, "\u0120paramilitary": 28841, "hey": 12229, "\u0120Instant": 26596, "\u0120Ambrose": 25349, "oultry": 41725, "\u0120Marcos": 17628, "\u0120cell": 3551, "Arc": 45018, "\u0120cul": 25069, "!!!": 16506, "\u0120founding": 10150, "\u0120partition": 34255, "\u0120humidity": 19849, "\u0120regulators": 5904, "hap": 24616, "\u0120vein": 22090, "\u0120County": 413, "\u0120crane": 28472, "\u0120Perl": 35939, "oard": 37021, "\u0120Its": 3139, "\u0120commitments": 9116, "DS": 5433, "\u0120Afric": 44285, "\u0120Scream": 36250, "Therefore": 32730, "netflix": 47273, "\u0120Tail": 30222, "\u0120Knight": 8695, "\u0120Domin": 13976, "\u0120Approach": 38370, "\u0120-=": 49826, "player": 23233, "\u0120pores": 39172, "aternity": 36156, "\u0120\u00e3\u0124": 49188, "Runtime": 49779, "\u0120multim": 27250, "ZZ": 31748, "\u01201861": 44023, "\u0120generational": 32762, "\u0120articles": 7201, "\u0120addicts": 26508, "\u0120pus": 32349, "\u0120escorted": 19386, "\u0120polygamy": 44297, "Indiana": 42875, "idis": 22831, "oslav": 39834, "\u0120nascent": 29671, "\u0120Kill": 14212, "\u0120filmmakers": 17504, "\u0120Cruz": 3590, "\u0120dermat": 27348, "FIELD": 19095, "ampunk": 46319, "\u0120Maher": 23155, "aks": 6629, "\u0120plan": 563, "\u0120Incident": 35201, "wake": 40731, "\u0120damaging": 9055, "\u0120Seat": 31169, "\u0120lived": 3033, "\u0120infrastructure": 2112, "\u0120parliament": 3589, "\u0120colors": 8089, "gru": 34497, "\u0120Der": 6113, "\u0120Kurdistan": 22953, "\u0120sig": 17224, "\u0120zone": 2056, "oni": 5270, "\u0120Instrument": 28559, "\u0120electroly": 39875, "ric": 4063, "\u0120overcrowd": 22002, "\u0120renting": 22175, "\u0120stationed": 17065, "attered": 26252, "\u0120SJ": 30850, "\u0120ministers": 5118, "\u0120antit": 38000, "\u0120deserve": 6565, "Disable": 49392, "\u0120celebr": 23517, "\u0120Dante": 30215, "\u0120Willie": 14959, "MSN": 48508, "inky": 26749, "\u0120Phillies": 14890, "ardy": 17391, "\u0120Sith": 33922, "\u0120Bullets": 40607, "Bi": 37426, "\u0120ingest": 36460, "\u0120knows": 2215, "Leon": 34792, "\u0120enforcement": 2251, "\u0120Shed": 34891, "Haunted": 48434, "\u0120Sov": 41162, "\u0120preferences": 16953, "Knowing": 40170, "\u0120meat": 4884, "\u0120Zoom": 36503, "206": 27639, "\u0120sought": 2952, "\u0120Tribune": 7990, "ippery": 44610, "ult": 6070, "ablishment": 47960, "\u0120assertions": 29947, "\u0120Rodriguez": 7288, "\u0120increases": 3488, "\u0120ticking": 25535, "\u0120Alexis": 11502, "burse": 30564, "\u0120cheese": 7134, "343": 31920, "\u0120unions": 7811, "\u0120Revolutionary": 22110, "\u0120spawned": 29219, "\u0120If": 318, "\u0120Brennan": 14639, "AI": 15238, "\u0120Lobby": 35434, "\u0120extent": 5239, "ridor": 46786, "aez": 26349, "\u0120renov": 21476, "\u00ef\u00bf\u00bd\u00ef\u00bf\u00bd": 47119, "NOW": 42218, "\u0120Swords": 46050, "\u0120transmitting": 39199, "\u0120business": 265, "\u0120kinda": 24282, "achelor": 40852, "\u0120conven": 16602, "RF": 30455, "abies": 23128, "\u0120tremb": 46754, "\u0120pen": 7670, "\u0120Furthermore": 9870, "\u00e2\u013f": 30151, "JUST": 43845, "\u0120occupants": 19062, "\u0120scaff": 35737, "ager": 6988, "existing": 19865, "\u0120prevalence": 21087, "\u0120ski": 10485, "wr": 26522, "\u0120extrater": 40595, "____": 28784, "\u0120bay": 11751, "\u0120F": 274, "\u0120mana": 46339, "\u0120ink": 16019, "\u0120synonymous": 26820, "\u0120Audio": 20555, "\u0120Vendor": 41319, "andre": 34537, "\u0120Obama": 1284, "\u0120commentator": 18265, "\u0120[+": 48935, "\u0120foray": 26826, "\u0120dosage": 38382, "\u0120Rubio": 16528, "\u0120Won": 20311, "\u0120sauce": 8929, "\u0120partake": 37404, "\u01202024": 15294, "served": 33091, "\u0120thing": 631, "Jes": 42268, "\u0120awhile": 29402, "592": 39642, "Teen": 39556, "\u0120Rebel": 25710, "\u0120engaged": 4009, "ITIES": 26824, "\u0120ted": 44817, "02": 4197, "\u0120stair": 28215, "\u0120Arlington": 15728, "\u0120Hobby": 39600, "\u0120Das": 9938, "\u0120drama": 4149, "\u0120Bet": 6525, "\u0120haz": 32468, "\u0120waits": 23120, "\u0120percent": 135, "\u0120Surveillance": 23948, "\u0120forfe": 31844, "\u0120parted": 26675, "\u0120USSR": 39955, "ritz": 25656, "\u0120Americ": 44647, "\u0120superheroes": 32254, "\u0120Gael": 27835, "\u0120Vector": 40419, "reatment": 29340, "\u0120Athe": 41412, "\u0120Compared": 23570, "\u0120PDF": 22745, "\u0120Falcon": 16289, "\u0120portable": 15295, "ivalent": 32995, "\u0120benefic": 34644, "\u0120sink": 12045, "\u0120duo": 6458, "\u0120mouth": 6085, "\u0120broad": 4007, "illa": 4699, "\u0120153": 25758, "aple": 44003, "\u0120Bever": 17524, "OFF": 32794, "\u0120bricks": 23938, "\u0120catcher": 14078, "ity": 1571, "\u0120conducting": 7909, "\u0120978": 42154, "\u0120jointly": 13521, "\u00c3\u00a9n": 10598, "</s>": 2, "\u0120reiterated": 8277, "\u0120Ave": 4597, "\u0120);": 47162, "\u0120Shadows": 41482, "\u01202007": 3010, "\u0120killer": 7844, "\u0120maximize": 16189, "\u0120intending": 33321, "iberal": 45246, "\u0120appeared": 1382, "service": 11131, "\u0120Flight": 13275, "\u0120Lama": 32496, "\u0120leaflets": 40659, "\u0120dolphin": 38780, "\u0120bowl": 5749, "onomous": 24239, "\u0120Chen": 10136, "ooky": 29093, "\u0120Weiner": 29453, "atonin": 43515, "\u0120Reuters": 1201, "\u0120breach": 6999, "\u0120variability": 36049, "\u0120Sta": 20876, "\u0120Burlington": 18249, "alions": 44029, "\u0120calm": 6327, "zeb": 31912, "cpu": 49345, "querade": 45501, "\u0120Administration": 4237, "\u0120Smoking": 38001, "vr": 37032, "\u0120Minute": 32377, "mal": 10417, "Session": 48171, "\u0120capability": 9388, "\u0120burg": 18521, "\u0120Boyle": 18194, "\u0120RELE": 36478, "\u0120CSI": 31888, "\u0120recipe": 10324, "\u0120Connect": 8791, "\u0120patri": 39343, "\u0120pic": 1893, "\u0120solo": 5540, "prof": 22376, "%).": 23528, "ington": 6598, "\u00e3\u0124\u00af": 49326, "\u0120submit": 6471, "\u0120broom": 39546, "\u0120CA": 5267, "\u0120290": 28482, "\u0120cope": 10731, "\u0120counters": 22420, "\u0120Dracula": 43433, "\u0120initialization": 49164, "\u0120Felix": 16876, "Gay": 43086, "\u0120Boxing": 14408, "\u0120Annotations": 49494, "\u0120curv": 42294, "\u0120discour": 40882, "\u0120shattering": 37269, "\u00b9": 9253, "HS": 6391, "\u0120contenders": 13372, "Fail": 48237, "\u0120substitute": 10268, "\u0120logger": 37764, "\u0120Ot": 10233, "\u0120shedding": 25126, "\u0120Vik": 16706, "\u0120INTER": 20281, "\u0120Alcohol": 17794, ">:": 49242, "\u00e2\u0137\u0132": 49870, "terrorist": 31456, "Instead": 23271, "olt": 11499, "\u0120allerg": 41767, "\u0120fairy": 25310, "\u0120kidney": 12855, "\u0120Over": 2306, "\u0120saddened": 19934, "\u0120wires": 22893, "Writing": 16332, "\u0120Fract": 45274, "EStreamFrame": 50241, "erie": 23834, "\u0120Cherry": 17238, ",'\"": 10076, "\u0120Spect": 18065, "\u0120Hemp": 30513, "\u0120cafes": 28220, "\u0120disagree": 11967, "\u0120rigorous": 17109, "rem": 5593, "doing": 30012, "OSE": 7949, "Moh": 29880, "\u0120prot": 24892, "\u0120Creed": 27364, "283": 32307, "irens": 28025, "rett": 18235, "\u0120uphold": 16060, "\u0120stash": 34954, "\u0120Wonder": 15133, "\u0120floor": 1929, "azes": 24505, "\u0120fluor": 39354, "\u0120USD": 6775, "sama": 48883, "\u0120Thrust": 47347, "lings": 16283, "\u0120Bra": 9076, "aun": 7381, "\u0120upgrades": 11500, "\u0120NAT": 36233, "\u0120Forms": 40293, "Wil": 28886, "\u0120Sold": 26456, "\u0120frontman": 22977, ".<": 49069, "\u0120Mas": 5822, "\u0120camp": 2205, "Emb": 42578, "audio": 24846, "],": 7479, "orted": 25654, "ble": 5225, "\u0120publicly": 3271, "\u0120rubbish": 22051, "\u0120Semin": 22142, "\u0120yelled": 19475, "\u00e5\u00a7": 49400, "Hat": 45081, "\u0120Assassins": 47595, "\u0120Fran\u00c3\u00a7ois": 37339, "},": 48268, "\u0120enhance": 6292, "\u0120inquest": 20886, "\u0120122": 18817, "\u0120Queen": 3929, "annabin": 45123, "\u0120perfect": 1969, "speed": 8619, "\u0120Clintons": 38259, "\u00bb": 2023, "\u0120insured": 24323, "\u0120Default": 35364, "uable": 29785, "\u0120cry": 8930, "\u0120Images": 2209, "\u0120alter": 11330, "\u0120P": 221, "agram": 17654, "<?": 50254, "houses": 18917, "\u0120molten": 40561, "\u0120reinforcing": 30744, "\u0120feasibility": 20140, "\u0120Sm": 4966, "\u0120Catholicism": 42580, "\u0120Huge": 32202, "\u0120IP": 6442, "\u0120110": 8017, "ampion": 33001, "\u0120Warrior": 24070, "\u0120devout": 36906, "\u0120scratched": 25807, "oat": 34827, "\u0120carbohydrate": 41611, "\u0120interpret": 18107, "\u0120timet": 44346, "\u0120study": 892, "\u0120Maz": 15775, "\u0120Argument": 45998, "\u0120Er": 4594, "\u0120fatally": 11293, "\u0120accrued": 31869, "\u0120sovereignty": 13617, "chal": 27126, "162": 29899, "\u0120Yad": 12098, "\u0120airplane": 16847, "\u0120COMMUN": 37275, "\u0120veget": 37999, "vette": 36117, "\u0120Republic": 3497, "\u0120WAR": 22543, "\u0120paragraph": 17818, "\u0120Del": 3011, "\u0120appropriated": 38881, "voice": 34076, "\u00e5\u00ae": 47089, "\u0120Plaintiff": 39920, "Rem": 31157, "league": 10925, "\u0120Johnson": 1436, "\u0120extingu": 22913, "\u0120rockets": 19367, "\u0120acquies": 41476, "\u0120lambda": 49027, "\u0120cortex": 40715, "Gaming": 45313, "\u00e3\u0123\u0141": 48179, "\u0120hypothesized": 45936, "\u0120Mint": 20128, "\u0120blows": 19250, "\u0120contempor": 44005, "\u0120220": 14576, "\u0120inclusion": 9290, "299": 23942, "\u0120serves": 4542, "colo": 43639, "\u0120Predict": 38192, "';": 23500, "rack": 32865, "ution": 15175, "\u0120xp": 49288, "child": 14069, "\u0120Muscle": 40221, "ped": 9700, "\u0120cf": 46470, "\u0120philosophies": 40728, "UAL": 17710, "Node": 48271, "\u0120observe": 14095, "uk": 1350, "unning": 26586, "\u0120untreated": 30946, "warm": 29530, "archive": 46862, "\u0120coll": 9843, "\u0120fem": 24295, "515": 36565, "%)": 8871, "\u0120Mull": 10605, "\u0120recess": 23459, "\u0120violent": 4153, "---": 24965, "noticed": 47202, "\u0120birthday": 4115, "\u0120loosely": 29213, "ript": 36423, "\u0120).": 32801, "Measure": 47715, "\u01201961": 20990, "\u0120Large": 13769, "\u0120absence": 5171, "TON": 8081, "\u0120scathing": 26777, "\u0120Shan": 18966, "\u0120Nice": 16911, "bm": 43531, "\u0120euros": 2729, "\u0120Timothy": 12134, "\u0120Wid": 19648, "fter": 23782, "\u0120Beginning": 22856, "\u0120assaulted": 8057, "\u0120condom": 37320, "\u0120side": 526, "kb": 41238, "\u0120year": 76, "\u0120plotting": 22849, "Compl": 45312, "arre": 19205, "bably": 46363, "\u0120doctrine": 26944, "\u0120salesman": 32656, "\u0120Removed": 46975, "\u0120uncom": 32275, "dad": 27398, "\u0120incre": 47080, "progress": 38265, "News": 5532, "Weight": 42158, "\u0120Ezek": 45023, "imedia": 34963, "\u0120billionaire": 9479, "\u0120Salmon": 26909, "!\".": 44065, "\u0120WD": 33925, "uckland": 47079, "rell": 6384, "\u0120poems": 25833, "mode": 42253, "ep": 2462, "udder": 44700, "\u0120Increases": 43832, "QU": 15513, "\u0120cared": 15732, "\u0120Nov": 1442, "\u0120Tip": 17726, "\u0120Ele": 21615, "Cloud": 14438, "\u0120Marion": 15280, "\u0120predicament": 33487, "\u0120pounds": 2697, "Psych": 44353, "\u0120Lor": 12235, "\u0120cursing": 41142, "Fl": 16197, "\u0120Bobby": 9014, "\u0120iOS": 6894, "\u0120shortstop": 17189, "\u0120Riding": 32280, "\u0120Keeping": 15572, "536": 39147, "Supporters": 45585, "plement": 40224, "exec": 22342, "ilies": 28694, "\u0120Sebast": 32905, "llers": 20855, "\u0120lifts": 19241, "ophobic": 31209, "\u0120gave": 851, "\u0120came": 376, "\u0120Forward": 10038, "REL": 39444, "Rich": 28295, "ampa": 20564, "rition": 46956, "\u0120sa": 2241, "\u0120Tart": 32724, "saf": 43425, "Message": 42394, "Discuss": 48816, "order": 10337, "omics": 26382, "\u0120SPI": 44114, "\u0120evaluate": 10516, "struction": 41287, "\u0120accelerating": 17604, "\u0120fugitive": 27157, "\u0120Humph": 16788, "VT": 35707, "\u0120369": 41821, "\u0120revision": 18939, "\u0120entitlement": 28610, "\u00c2\u00a8": 36348, "inations": 17808, "\u0120unus": 43565, "\u0120slaughter": 18602, "\u0120Colonel": 21253, "uggets": 35486, "\u0120rattled": 21602, "hung": 26677, "\u0120Mansion": 29252, "Pope": 36017, "advant": 40933, "\u0120genitals": 33079, "\u0120popularity": 7347, "\u0120disabled": 6242, "\u0120205": 21000, "!.": 42202, "\u0120Nutrition": 20056, "\u0120Adv": 17638, "\u0120Prix": 11761, "\u0120variable": 15594, "RANT": 43893, "\u0120flowering": 39209, "\u0120internally": 16985, "ilty": 33576, "\u0120Benson": 20236, "Tony": 26156, "\u0120void": 13842, "\u0120Kaplan": 25353, "\u0120Wi": 9276, "\u0120334": 38599, "Includes": 48100, "\u0120Cou": 7812, "\u0120MySQL": 46097, "\u0120promotional": 14634, "\u0120programs": 1767, "\u0120positive": 1313, "pair": 44170, "\u0120scouting": 21986, "\u0120destination": 6381, "\u0120quarrel": 39486, "access": 28300, "\u0120Lives": 13409, "keleton": 44869, "Typically": 43095, "\u0120Civ": 37791, "\u0120.)": 42296, "\u0120observer": 25338, "\u0120Consumers": 19354, "\u0120judge": 1679, "\u0120eroded": 28414, "\u0120Everywhere": 37691, "versions": 44784, "dragon": 46933, "bats": 20266, "\u0120destroyed": 4957, "\u0120ebook": 43864, "====": 48332, "leased": 35830, "\u0120Harmony": 27427, "Explore": 47526, "\u0120touch": 2842, "\u0120contradict": 28204, "\u0120RSA": 36703, "\u01201911": 39711, "Hom": 37778, "\u0120Higgins": 19422, "\u0120adjustments": 11431, "direction": 42184, "breakers": 34691, "\u0120touted": 14764, "\u0120298": 37353, "\u0120rounded": 14439, "\u0120bab": 30301, "\u0120Monday": 302, "\u0120grad": 12003, "\u0120twins": 13137, "\u0120DV": 32586, "\u0120McCann": 22358, "\u0120Hidden": 26234, "movie": 38428, "\u0120Brain": 19743, "\u0120harmful": 11190, "\u0120Class": 4210, "\u0120rests": 24859, "\u0120Legion": 14350, "\u0120Areas": 20975, "\u0120MP": 3957, "\u0120Stun": 43038, "\u0120altern": 25935, "\u0120singer": 3250, "\u0120Industry": 5354, "\u0120executions": 23729, "info": 23999, "\u0120spun": 17281, "\u0120betrayal": 26760, "\u0120envis": 24012, "BUR": 10803, "\u0120Messages": 34692, "\u0120inaction": 30365, "DT": 23858, "\u0120immune": 9161, "\u0120visually": 21545, "\u0120Bills": 8991, "\u0120Kuwait": 13857, "nant": 26665, "\u0120cou": 15763, "\u0120rend": 24200, "\u0120dolphins": 33351, "\u0120causation": 45832, "WARE": 47701, "\u0120upset": 4904, "Ext": 40884, "\u0120aval": 42245, "\u0120Notre": 10579, "\u0120lamented": 20010, "\u0120motivations": 30337, "regnancy": 34468, "\u0120intervals": 29087, "\u00e2\u0136\u0122\u00e2\u0136\u0122\u00e2\u0136\u0122\u00e2\u0136\u0122\u00e2\u0136\u0122\u00e2\u0136\u0122\u00e2\u0136\u0122\u00e2\u0136\u0122": 49495, "\u0120Rust": 23083, "\u0120Automatic": 31662, "gom": 44684, "\u0120Soul": 16455, "\u0120supplied": 12359, "United": 20556, "\u0120amp": 28127, "sever": 30453, "\u0120nerve": 10387, "\u0120total": 746, "\u0120Anglo": 20798, "ghost": 41796, "\u0120multiplier": 42700, "\u0120propulsion": 36602, "Plot": 48812, "\u0120BL": 12413, "\u0120revive": 13096, "\u0120scratch": 12272, "\u00e7\u0130\u012d": 49548, "\u0120300": 2993, "page": 8596, "\u0120Environmental": 6982, "\u013c\u00e9": 49431, "ots": 5992, "Model": 45149, "\u0120ventures": 16186, "\u0120Caf\u00c3\u00a9": 22450, "\u0120created": 1412, "\u0120Screen": 14828, "\u0120frustrations": 25308, "iverse": 32273, "icles": 20846, "amph": 46976, "\u01201830": 42367, "MW": 19454, "Texture": 49461, "\u0120Montreal": 5817, "\u0120spins": 35003, "\u0120wherever": 11263, "\u0120Manziel": 34051, "Cooldown": 50042, "\u0120patrol": 8691, "\u0120Harvard": 8412, "\u0120pretend": 17050, "mans": 18370, "urch": 9222, "gorith": 45909, "ersion": 39565, "\u0120interviewed": 7477, "\u0120ado": 42672, "\u0120Clo": 21627, "\u0120Chan": 8710, "\u0120Link": 4341, "\u0120Seasons": 27016, "\u0120Met": 4369, "\u0120Monkey": 34546, "Call": 20653, "\u0120Gabe": 29757, "\u0120breached": 18646, "Lex": 43551, "\u0120Aeg": 34519, "olar": 19231, "Boss": 43047, "\u0120foresee": 31437, "Palest": 47695, "\u0120visc": 45694, "\u0120sigh": 27305, "\u0120emerge": 9845, "\u0120grouped": 38015, "\u0120----": 45376, "\u0120accumulate": 29196, "\u0120accessing": 13655, "\u0120lakes": 17529, "\u0120Barney": 32252, "\u0120Guru": 32341, "\u0120amps": 44938, "\u0120Regions": 18647, "\u0120moments": 3423, "\u0120trope": 42504, "\u0120deciding": 8997, "\u0120Los": 1287, "num": 42666, "\u0120occupancy": 22526, "uj": 11591, "Seg": 42775, "tty": 28743, "\u0120filings": 9045, "iban": 33372, "\u0120mammal": 39326, "DC": 5949, "ciating": 48027, "\u0120verb": 33760, "Meet": 30682, "\u0120wid": 23772, "Camp": 31990, "\u0120unconscious": 15003, "\u0120cookies": 15269, "\u0120displayed": 7899, "\u0120Century": 9348, "\u00e5\u00a7\u00ab": 50047, "itism": 30619, "\u0120example": 1246, "udic": 43940, "538": 38425, "\u0120spokeswoman": 3582, "\u0120searching": 6062, "\u0120Dying": 42008, "\u0120299": 35768, "hair": 34019, "uds": 23082, "\u0120antique": 28608, "lando": 29028, "\u0120adorned": 29191, "rod": 10774, "\u0120easy": 1365, "\u0120resilience": 13790, "rance": 16557, "film": 21928, "\u0120trait": 28794, "\u0120trek": 18526, "Storm": 36025, "Qaeda": 25697, "\u0120hardship": 20802, "210": 22146, "Imp": 30281, "\u0120embarrassing": 13394, "nih": 24469, "Dual": 47587, "\u0120healed": 32491, "\u0120specificity": 42561, "mar": 3916, "\u0120WikiLeaks": 18568, "\u0120Conflict": 35856, "420": 23537, "duction": 42705, "\u0120Meat": 25263, "\u0120condemned": 8686, "acion": 8647, "lv": 25091, "\u0120Series": 3265, "Beck": 41495, "\u0120superhuman": 43969, "\u0120beads": 35036, "\u0120leg": 2985, "\u0120Irwin": 26062, "\u0120under": 223, "\u0120doll": 19495, "\u0120sluggish": 16642, "\u0120colorful": 14128, "optim": 35692, "\u0120aging": 10662, "inen": 11072, "clave": 38121, "\u0120Rumble": 25720, "\u0120counterfeit": 26160, "pal": 18239, "\u0120statutes": 31706, "\u0120older": 2530, "ite": 1459, "467": 35400, "integer": 49465, "\u0120harming": 28428, "\u0120screenshot": 27314, "\u0120Scare": 44429, "\u0120Huss": 36958, "\u0120analysts": 1066, "lights": 20888, "\u0120Model": 7192, "\u0120mug": 20148, "\u0120programme": 3020, "\u0120initiative": 3893, "\u0120worn": 10610, "\u0120homicide": 9627, "oti": 10939, "\u0120voic": 30118, "\u0120yarn": 32566, "\u0120dumping": 18128, "\u0120prostitution": 23105, "Prior": 41542, "\u0120Mann": 11892, "bold": 30508, "\u0120Marxist": 37949, "\u0120dismal": 23446, "\u0120juice": 10580, "\u0120Tea": 16577, "\u0120stark": 12664, "\u0120outfield": 21088, "Spons": 43753, "\u0120Melee": 48261, "untarily": 41938, "\u0120kindergarten": 19610, "\u0120creditors": 12089, "\u0120unrem": 40618, "151": 27761, "\u0120railway": 10780, "\u0120Viz": 29950, "345": 26868, "ubs": 19424, "\u0120marches": 22329, "ORN": 29242, "\u0120daytime": 19436, "\u0120Explosive": 42837, "\u0120reports": 690, "\u012059": 5169, "\u0120televised": 14451, "\u0120sincerity": 35182, "\u0120castle": 22637, "\u0120Bob": 3045, "\u0120observable": 45472, "ORTS": 25861, "\u0120Burg": 16588, "\u0120reflects": 6771, "\u0120directional": 40535, "Nut": 43977, "\u0120[\u00e2\u0122\u00a6]": 22176, "Spoiler": 46928, "\u0120atomic": 21495, "\u0120varying": 15958, "\u0120convol": 49700, "\u0120brittle": 40818, "Both": 16991, "\u0120HDD": 44139, "\u0120Exp": 12806, "\u0138": 25448, "\u0120summary": 4819, "\u0120Description": 33425, "\u0120pundits": 23663, "\u0120ARC": 35975, "\u0120Mask": 31755, "\u0120Nico": 22544, "otomy": 40139, "\u0120so": 98, "\u0120origins": 18863, "urrection": 47754, "\u01201960": 7571, "\u0120Radeon": 38185, "pox": 40682, "\u0120recycling": 11690, "owed": 9725, "\u0120coined": 32993, "Population": 48653, "classes": 44770, "\u0120nano": 36924, "\u0120Fir": 21663, "\u0120might": 429, "SD": 6243, "\u0120remix": 35150, "\u0120gamb": 34796, "\u0120Fired": 41969, "walking": 36535, "\u0120fashioned": 30874, "arth": 16880, "\u0120eighth": 4413, "\u0120cooker": 35572, "\u0120believing": 13294, "Record": 33526, "form": 3899, "\u0120obvious": 4678, "\u0120sponsorship": 15663, "\u0120scant": 26583, "\u0120char": 16224, "Render": 48440, "\u0120dummy": 34759, "\u0120Coverage": 16514, "\\\":": 49871, "car": 5901, "\u0120without": 396, "\u0120139": 24404, "\u0120421": 40685, "\u0120hemor": 49014, "\u0120Damascus": 12493, "\u0120garment": 25916, "\u0120breeding": 16828, "tz": 12527, "key": 5282, "intestinal": 46860, "14": 1570, "\u0120resisted": 18993, "\u0120ratt": 29154, "\u0120monkeys": 30425, "\u0120sacrifice": 9802, "\u0120Poverty": 27919, "\u0120issuing": 10392, "artment": 27699, "\u0120unprotected": 37442, "\u0120Trust": 3101, "\u0120partisans": 32459, "\u0120heed": 25432, "\u0120seasonal": 10175, "\u0120caliphate": 34708, "acho": 21110, "\u0120CDs": 32570, "\u0120Weiss": 20130, "\u0120Severus": 48879, "\u0120weddings": 21596, "\u0120safegu": 28531, "\u0120belonging": 11441, "\u0120Estonia": 24799, "egg": 38299, "\u0120fruits": 12849, "\u0120spe": 25227, "\u0120survivor": 14466, "more": 4321, "\u0120attrition": 36141, "\u0120thought": 802, "\u0120squirrel": 29629, "\u0120Neil": 7045, "\u0120repression": 29071, "\u0120Gill": 6452, "regor": 49218, "\u0120PM": 2784, "sa": 11146, "\u0120perception": 10518, "ANGE": 27917, "\u0120tragically": 29641, "\u0120denied": 2296, "\u0120Hunts": 18571, "\u0120Cookies": 41200, "\u0120sworn": 11370, "\u0120BC": 9543, "\u0120lottery": 11395, "ills": 5622, "\u0120theology": 37007, "\u0120marched": 15199, "casting": 36683, "hesive": 45064, "\u0120presidential": 1939, "\u0120Suicide": 25053, "\u0120Scy": 47053, "\u0120Moor": 19524, "\u0120Superman": 25143, "\u0120putting": 2057, "ough": 4894, "\u0120Gow": 21400, "asso": 21413, "\u0120uninterrupted": 33818, "Topic": 48931, "\u0120formal": 4828, "\u0120Definitely": 33826, "\u0120opportun": 23609, "Sport": 19451, "\u0120Photographer": 25469, "\u0120deceptive": 31405, "taining": 44530, "\u0120oldest": 7763, "\u00c3\u0143s": 18890, "\u0120Lexington": 18428, "\u0120Cher": 13881, "rophic": 34121, "\u0120owner": 1945, "\u0120substit": 36553, "\u0120microphone": 18896, "\u0120begun": 5812, "\u0120mic": 14926, "\u0120jumped": 4262, "\u0120served": 1665, "\u01201985": 12497, "ameless": 37955, "\u0120STAND": 40358, "\u0120excise": 28994, "\u0120drinkers": 32571, "\u0120Marines": 19368, "Co": 8739, "\u0120dinner": 3630, "\u0120Barnes": 10164, "Admin": 48175, "ome": 4399, "\u0120sque": 33380, "\u0120confinement": 25615, "\u00fc": 50104, "\u0120Partnership": 11697, "\u0120ankles": 35713, "\u0120MLA": 16961, "\u00c3\u00a1s": 6417, "\u0120relentless": 16476, "\u0120worsen": 25698, "hibit": 45529, "\u0120Disability": 33599, "Often": 39972, "\u0120tyres": 21112, "\u0120statues": 19638, "addafi": 45808, "\u0120insufficient": 16429, "\u0120Ste": 5527, "\u0120transparency": 7218, "Depending": 44402, "expl": 23242, "\u0120newsp": 48933, "moderate": 19397, "\u0120apologizing": 31216, "\u0120near": 583, "\u0120Elena": 24816, "\u0120quotas": 25819, "\u0120reun": 10854, "ortmund": 47867, "\u0120mandated": 17171, "obe": 14004, "\u0120dur": 17373, "\u0120Glen": 7072, "ossus": 45786, "\u0120Offic": 37068, "\u0120sys": 47427, "\u00ac\u00bc": 49794, "\u0120POP": 39033, "\u0120armoured": 35113, "\u0120Supplemental": 39821, "\u0120exported": 22332, "\u0120dwelling": 28576, "Cart": 44394, "\u0120E": 381, "\u0120dip": 10645, "\u0120describing": 9072, "\u0120Jud": 19691, "\u0120prohibits": 20026, "\u0120compromises": 30478, "ki": 3144, "\u0120mercenaries": 41948, "uyomi": 49705, "JJ": 40268, "\u0120backlash": 10279, "\u0120carniv": 41534, "\u0120swallowed": 32305, "\u0120colleagues": 4025, "\u00b6\u00e6": 49363, "uterte": 46489, "\u0120surprise": 2755, "\u0120stolen": 3579, "\u0120symbolism": 37107, "\u0120renown": 45098, "\u0120ELE": 44501, "\u0120team": 165, "\u0120decorations": 22868, "\u0120NZ": 15930, "\u0120synchronization": 46127, "andals": 33222, "Refer": 48310, "\u0120intelligent": 12038, "estine": 40164, "Chat": 29665, "\u0120injust": 33235, "\u0120sweating": 31363, "\u0120strained": 15718, "\u0120MAG": 29505, "\u0120horses": 8087, "\u0120bows": 36620, "ised": 1720, "\u0120fragmented": 27946, "arten": 18567, "\u0120Bounty": 44026, "\u0120silver": 4334, "\u0120Obesity": 40931, "244": 30043, "\u0120Baron": 22105, "\u0120${": 48982, "Absolutely": 32523, "\u0120airlines": 8537, "romeda": 49025, "acement": 23423, "ank": 3153, "\u0120linen": 37919, "\u0120novelist": 29613, "\u0120decor": 12489, "Language": 46969, "\u0120officially": 4142, "\u0120relieved": 15126, "\u0120finding": 2609, "\u0120trees": 3980, "\u0120Hopkins": 11905, "forcing": 43837, "\u0120savvy": 22102, "tains": 30759, "\u0120incur": 30163, "\u0120occas": 49975, "viously": 34978, "\u0120legitimate": 8134, "photos": 40259, "\u0120Rhythm": 37673, "\u0120spelled": 29341, "\u0120carries": 5723, "\u0120behavioural": 35478, "\u0120partnership": 3088, "\u0120largely": 2743, "orget": 46384, "\u0120Farmers": 13267, "HR": 16271, "\u0120Myanmar": 7095, "\u0120progressive": 8212, "\u0120vengeance": 35541, "cessive": 37013, "\u0120teamed": 11981, "_______": 43401, "\u0120recollection": 36261, "\u0120vibe": 16464, "Al": 7083, "\u0120element": 7510, "\u0120redund": 42421, "mc": 29297, "\u0120gunman": 8928, "old": 279, "\u0120Norwich": 18749, "\u0120Mig": 22709, "change": 14035, "\u01203": 155, "\u0120Siem": 16422, "\u0120employ": 12735, "\u0120MODULE": 49736, "berman": 43049, "\u0120unf": 9515, "Indeed": 40566, "\u0120precon": 40218, "\u0120Reilly": 24310, "\u0120punished": 14459, "\u0120complexion": 29914, "431": 39015, "fc": 25484, "ov": 1417, "\u0120Twisted": 44059, "trust": 23170, "\u0120greens": 16543, "ictionary": 48183, "\u0120Pair": 34587, "fs": 17884, "\u0120ask": 1394, "ouble": 43591, "\u0120Plug": 35079, "\u0120Works": 9478, "\u0120sustainability": 11128, "\u0120Core": 9025, "\u0120Present": 17356, "\u0120Ki": 11488, "\u0120Lenovo": 21522, "\u00c0": 50093, "\u0120awaiting": 10254, "\u0120Patty": 24237, "\u0120blinking": 42885, "\u0120Scar": 16400, "ifa": 15247, "\u0120Neighbor": 36968, "assin": 42846, "\u0120strang": 31083, "\u0120\u00c2\u00a9": 3705, "\u0120cx": 49641, "\u0120Cummings": 20342, "Twitter": 22838, "\u01204090": 49635, "\u0120Eugene": 16562, "\u0120kicked": 5836, "\u0120sniff": 25275, "\u0120IMF": 10458, "govern": 32019, "\u0120politicians": 3770, "\u0120support": 323, "\u0120minors": 12633, "\u0120Turbo": 30026, "\u0120smack": 35945, "\u0120global": 720, "\u0120copies": 11288, ".>>": 48784, "\u0120athleticism": 25211, "\u0120commanding": 20510, "sp": 4182, "\u0120casualty": 21646, "\u0120downfall": 27849, "hell": 20030, "ende": 14537, "shock": 37316, "\u0120Erin": 13799, "bin": 9413, "\u0120Stern": 21047, "\u0120centrist": 24415, "stals": 46017, "\u0120NULL": 48955, "ascar": 45430, "laws": 18712, "\u0120bou": 20437, "\u0120feud": 13824, "agame": 48760, "fficiency": 45326, "\u0120scores": 4391, "\u0120Supporting": 26515, "\u0120Supreme": 2124, "Walker": 41388, "\u0120tem": 11030, "\u0120approached": 5508, "km": 7203, "set": 8738, "\u0120Puzzles": 48383, "enzie": 15847, "\u0120hers": 23367, "style": 5827, "lied": 17366, "503": 38071, "\u0120OUT": 14662, "\u0120dictates": 32677, "\u0120regulate": 14244, "\u0120Pes": 20127, "\u0120planned": 1904, "\u0120spilling": 31537, "\u0120converts": 33894, "\u0120LC": 24756, "\u0120funn": 29310, "\u0120airspace": 25260, "kward": 41609, "lay": 8433, "tk": 37001, "plugins": 48708, "\u0120eighteen": 34851, "ARDS": 38623, "\u0120weekly": 4114, "auntlets": 48868, "\u0120textbooks": 31266, "\u00e2\u0122\u012d\u00e2\u0122\u012d": 36387, "\u0120tofu": 40376, "\u0120architectures": 41885, "\u0120grit": 24299, ")\u00e2\u0122\u0136": 31698, "court": 8953, "root": 29059, "\u0120Denise": 18869, "\u0120borrow": 12152, "\u0120Kur": 13830, "119": 21397, "wire": 11208, "\u0120insulation": 27386, "\u0120analytic": 43474, "orc": 37690, "icks": 8370, "itor": 7852, "strings": 40563, "abin": 17531, "ervation": 26481, "bling": 12947, "\u0120recursive": 48875, "\u0120paperwork": 14630, "\u0120booth": 13939, "\u0120Errors": 46357, "itic": 31128, "\u0120noses": 34953, "\u0120The": 20, "\u0120Transition": 34235, "RIP": 29987, "\u012095": 6164, "\u0120Venus": 18168, "\u0120Branch": 12159, "\u0120Daw": 20804, "\u0120enthus": 48681, "\u0120invariably": 33623, "\u0120ushered": 30155, "conserv": 47906, "\u0120Tucson": 20089, "attribute": 49202, "\u0120Mono": 44512, "\u0120Merkel": 6580, "\u0120Origins": 40409, "\u0120RS": 15388, "\u0120door": 1883, "gorithm": 47549, "\u0120Claw": 44121, "\u0120praying": 17587, "\u0120immensely": 23783, "\u0120groin": 20671, "\u0120phone": 1028, "\u0120coffin": 26482, "Champ": 43225, "\u0120hip": 6605, "\u0120gunned": 25907, "\u0120PB": 24274, "\u0120constituents": 13990, "\u0120Fourth": 11035, "dL": 45921, "\u0120equivalent": 6305, "\u0120sup": 28836, "\u0120prohibited": 9986, "\u0120assembled": 14525, "\u00c3\u00a8re": 18655, "\u0120robotic": 20701, "\u0120catalogue": 29346, "\u0120perilous": 33873, "\u0120Ebola": 12977, "\u0120Poker": 34943, "\u0120liberate": 38032, "\u0120siege": 19951, "238": 29567, "\u0120sanitation": 21212, "\u0120Eighth": 29906, "xxxxxxxx": 42523, "isman": 21581, "\u0120Chev": 43642, "\u0120laughed": 13503, "\u0120Door": 21405, "\u0120CLASS": 33575, "oley": 27485, "HER": 21770, "ignt": 47544, "ees": 5421, "\u0120clashes": 10165, "\u0120prohibit": 18262, "\u0120uninsured": 24552, "1": 134, "\u0120refused": 3179, "cent": 6342, "ju": 7488, "\u0120compar": 36601, "\u0120drastically": 17811, "\u0120iceberg": 26937, "ra": 763, "\u0120CCP": 43112, "All": 3684, "\u0120relegation": 15403, "prem": 20692, "\u0120198": 30858, "umblr": 48220, "AAAAAAAA": 48983, "\u0120less": 540, "\u0120rewarding": 16044, "Quick": 42323, "oney": 6071, "\u0120unwitting": 44099, "pose": 21519, "izes": 7396, "\u0120\"\"\"": 49434, "cre": 34868, "\u0120Element": 35871, "\u0120stadium": 4773, "Wave": 37334, "\u0120Ramirez": 12715, "\u0120portraits": 22713, "\u0120Rothschild": 33403, "\u0120homes": 1611, "\u0120384": 41285, "\u0120sync": 22785, "alysis": 45253, "\u0120eviction": 26950, "\u0120stained": 31789, "\u0120Monica": 12811, "\u0120airliner": 36166, "ucing": 30623, "\u0120remaining": 2405, "\u0120Titanic": 33368, "Reloaded": 49718, "izard": 44417, "agonists": 48782, "\u0120drought": 7635, "\u0120bean": 23216, "\u0120understandable": 19717, "cial": 15585, "\u0120gatherings": 22819, "ress": 5224, "\u0120purchaser": 37742, "\u0120bankruptcy": 7388, "\u0120Medals": 45578, "\u0120inventive": 34906, "\u0120astron": 46324, "\u0120Horn": 10091, "\u0120Kraken": 46057, "\u0120resolved": 8179, "\u0120Jeffrey": 9011, "\u0120subsequ": 49734, "\u0120lament": 25532, "\u0120Mario": 8782, "\u0120pedestrians": 13894, "\u0120discovering": 18152, "\u0120Nat": 10037, "\u0120breaks": 6383, "\u0120flux": 34903, "\u0120pressured": 16842, "ADVERTISEMENT": 45037, "\u0120Mur": 7273, "\u0120hopefully": 5952, "\u0120adaptations": 38232, "526": 30359, "\u0120Pil": 13601, "\u0120ratification": 34814, "\u0120bleach": 38317, "\u0120athletics": 16015, "\u0120Georgetown": 15226, "izons": 36645, "\u0120Coup": 37223, "\u0120Flynn": 6969, "\u0120Evan": 9771, "\u0120money": 418, "\u0120neighboring": 10935, "\u0120multiplied": 39582, "\u00e2\u0138\u0142": 48568, "\u0120cartoon": 15800, "\u0120Better": 11238, "uclear": 13886, "\u0120targeted": 3656, "\u0120legendary": 9227, "living": 26111, "\u0120typ": 33488, "adequ": 37462, "Questions": 46865, "\u0120hath": 46199, "owan": 20409, "\u0120proliferation": 24739, "Expl": 43043, "\u0120sort": 2345, "\u0120Pyongyang": 7625, "\u0120entry": 3555, "Des": 28324, "\u0120writes": 5789, "Rod": 30055, "west": 10823, "\u0120administer": 26094, "feat": 42800, "LL": 6006, "\u0120TED": 32690, "\u0120keen": 5609, "\u0120Aid": 11572, "Toy": 40074, "\u0120Rhodes": 16635, "\u0120drainage": 20971, "Sty": 46083, "\u0120detailing": 14901, "\u0120Frank": 3848, "\u0120backer": 33669, "produced": 25617, "ibu": 16343, "Oregon": 35287, "\u0120horrific": 12392, "priv": 25943, "Mon": 17312, "\u0120dissenting": 35628, "wcs": 49211, "uilt": 49139, "\u0120animal": 3477, "\u0120affidavit": 12753, "\u0120diarrhea": 28657, "\u0120troubled": 9895, "\u0120companion": 15625, "\u0120enthusiastically": 33204, "\u0120Translation": 41737, "\u0120Sag": 16833, "\u0120mell": 34384, "ukong": 44035, "576": 39617, "\u0120offense": 2970, "\u0120unconventional": 22438, "\u0120sub": 2849, "\u0120drying": 27402, "\u0120Syndicate": 39466, "\u0120boils": 36023, "\u0120Rat": 12041, "\u0120accusation": 17984, "\u0120Unreal": 43697, "dis": 7779, "Level": 38809, "iers": 4733, "artisan": 43512, "\u0120Sanskrit": 44018, "Tok": 41650, "\u0120murdered": 9694, "iculture": 31685, "\u0120expand": 3003, "naires": 34162, "ug": 3252, "Manager": 44854, "ERROR": 46734, "\u0120Dow": 4614, "CF": 25388, "\u0120scatter": 41692, "isol": 36508, "\u0120Ma": 3066, "aves": 9419, "\u0120accuse": 15311, "\u0120woodland": 35773, "\u0120misogyny": 36121, "\u0120stupid": 12103, "FU": 36693, "iness": 6601, "\u0120imports": 5058, "\u0120miners": 12916, "\u0120Southeast": 6079, "igr": 23704, "\u0120\u00e2\u0135\u013a": 50056, "\u00c2\u00ab": 45241, "EN": 2796, "\u0120Samar": 17882, "restrial": 39169, "\u0120unwelcome": 33552, "\u0120Serpent": 44340, "\u0120firms": 2566, "\u0120cabbage": 33748, "\u0120Cro": 6466, "\u0120Morg": 32720, "\u0120procurement": 13803, "develop": 34335, "\u0120epile": 44751, "\u0120Preservation": 31039, "\u0120Capitalism": 44587, "\u0120embryonic": 43982, "\u0120Baton": 18298, "\u0120welcome": 2814, "\u0120naughty": 38384, "usion": 15727, "right": 4070, "\u0120irony": 21490, "\u0120idiot": 30603, "\u0120distressed": 21460, "Downloadha": 50231, "\u0120pm": 4751, "\u0120challenged": 6835, "\u0120Ottawa": 5837, "\u0120dog": 2335, "aries": 5119, "\u0120dormant": 32434, "());": 49291, "FX": 24119, "\u0120Regina": 15215, "haired": 29542, "accompan": 49590, "\u0120Department": 641, "\u0120needy": 28166, "\u0120413": 39898, "\u0120sucked": 28635, "\u0120reach": 1338, "ala": 2331, "\u0120swirl": 33361, "\u0120ripped": 12256, "\u0120Kingdoms": 46453, "opic": 18137, "Jump": 45958, "\u0120liquor": 13782, "\u0120Cove": 19452, "ail": 3760, "\u0120Carolina": 1961, "\u0120Trip": 13734, "\u0120overest": 39694, "cester": 27811, "Result": 48136, "\u0120microbes": 32381, "\u0120deceive": 37267, "\u0120EntityItem": 50257, "\u0120amplification": 45156, "\u0120inhibition": 44944, "orce": 34260, "emark": 37088, "\u0120Clearly": 16975, "osit": 30642, "\u0120Neigh": 16853, "\u0120Supporters": 18730, "\u0120presume": 38337, "\u0120impulse": 30984, "\u0120McLaren": 15081, "anting": 30712, "\u0120adventurers": 45583, "\u0120Feature": 31967, "\u0120THIS": 10652, "\u0120colonies": 28863, "\u0120parachute": 34872, "\u0120Missing": 23632, "ITH": 27698, "\u0120418": 42928, "\u0120Abilities": 47887, "\u0120CrossRef": 49992, "\u0120transmit": 25556, "MHz": 38333, "period": 28030, "\u0120historic": 3575, "\u00e3\u0124\u00b5": 49568, "\u0120resigned": 6490, "\u0120moderator": 36990, "ilib": 42345, "\u00be": 4726, "\u0120framing": 27307, "\u0120cabinet": 5892, "\u0120Cats": 20913, "\u0120Springfield": 12197, "\u0120married": 2997, "\u0120unim": 41236, "\u0120logos": 30138, "\u0120Farage": 29393, "\u0120controllers": 22971, "ificantly": 32333, "\u0120Orn": 41859, "\u0120alcoholism": 37934, "ellation": 33924,
[...]
